/**
  ******************************************************************************
  * @file    network_ecblobs.h
  * @brief   NN Code autogenerated DO NOT MODIFY IT
  ******************************************************************************
  * @attention
  *
  * Copyright (c) 2024 STMicroelectronics.
  * All rights reserved.
  *
  * This software is licensed under terms that can be found in the LICENSE file
  * in the root directory of this software component.
  * If no LICENSE file comes with this software, it is provided AS-IS.
  *
  ******************************************************************************
  */


#ifdef __cplusplus
extern "C" {
#endif

#include "ll_aton_caches_interface.h"

#include <string.h>

#if !defined(ECBLOB_CONST_SECTION)
#define ECBLOB_CONST_SECTION /* Empty */
#endif
#if !defined(ECBLOB_RUNTIME_SECTION)
#define ECBLOB_RUNTIME_SECTION /* Empty */
#endif

ECBLOB_CONST_SECTION
// _ec_blob_network_1 blob binary, aligned to the cache line size (equal to 64 bytes)
__attribute__((aligned(64)))
static const uint64_t _ec_blob_network_1[3816] =
{
  0x00000018ecbf0050UL, 0x0000000000000000UL, 0x0000000000000048UL, 0x0000001800000001UL,
  0x0000001000000002UL, 0x0000002c0000001eUL, 0x6f695f726573755fUL, 0x305f7475706e695fUL,
  0x0000000000000000UL, 0x00001dadca057a7aUL, 0x0000005d0000003dUL, 0x5c00004200802241UL,
  0x1500006008000000UL, 0x000700005c027c00UL, 0x000040005c070043UL, 0x5c0c00430000ffe0UL,
  0x1041204200000000UL, 0x6000004200802261UL, 0x1500000008000000UL, 0x0007000060027c00UL,
  0x0000400060070043UL, 0x600c004300000020UL, 0x1041104100000000UL, 0x20007c0000802061UL,
  0x2002004300080104UL, 0x00024c0000000000UL, 0x00000000200500c3UL, 0x0000000000024c00UL,
  0x0000002400000000UL, 0x200c004200100000UL, 0x0000000700000006UL, 0x00000001200d0043UL,
  0x2011004300024c07UL, 0x0000000000000000UL, 0x38007c0000802121UL, 0x380200430008010cUL,
  0x00024c0034311000UL, 0x00000000380500c3UL, 0x0000000000024c00UL, 0x0000002400000000UL,
  0x380c004200100000UL, 0x0000000700000006UL, 0x00000001380d0043UL, 0x3811004334335c3fUL,
  0x0000000000000000UL, 0x0000000210007c00UL, 0x0000006410000424UL, 0x10007c0000000000UL,
  0x10007bc440000000UL, 0x0000000000000064UL, 0x0000000110007c00UL, 0x00000027100b7c00UL,
  0x00000007101e7c00UL, 0x0000002510207c00UL, 0x5c00200138002001UL, 0x2000200160002001UL,
  0x0000006438007fe4UL, 0x100b7c0000000000UL, 0x101e7c0000000000UL, 0x10207c0000000000UL,
  0x38007c0000000000UL, 0x3800042400000002UL, 0x0000000000000064UL, 0x4000000038007c00UL,
  0x0000006438007bc4UL, 0x0080012100000000UL, 0x080000025c007c00UL, 0x000000645c000424UL,
  0x5c007c0000000000UL, 0x5c007bc448000000UL, 0x0000000000000064UL, 0x60007c0000800241UL,
  0x6000042408000002UL, 0x0000000000000064UL, 0x4800000060007c00UL, 0x0000006460007bc4UL,
  0x0080026100000000UL, 0x0000000220007c00UL, 0x0000006420000424UL, 0x20007c0000000000UL,
  0x20007bc440000000UL, 0x0000000000000064UL, 0x0000007d00800061UL, 0x3c007c0000802141UL,
  0x3c0200e300100034UL, 0x0000115508030303UL, 0x00e002a010634202UL, 0x00df0000029f0000UL,
  0x3c0a7c0000000001UL, 0x3c0d7c0000000000UL, 0x0080228100000000UL, 0x0800000064000042UL,
  0x64020123156000fcUL, 0x00000000000b0000UL, 0x00061fff00000007UL, 0x00000000000c3fffUL,
  0x07c403f900000000UL, 0x640c004300000001UL, 0x2042204200000000UL, 0x00000001640b7c00UL,
  0x02e210b465000403UL, 0xfaa13930000077e6UL, 0x014207370000b7caUL, 0x01c80e86000000e8UL,
  0xffa92af80000eb99UL, 0x026a6f0f0000884fUL, 0xfec436a30000eaabUL, 0x02dc1ece00007bb5UL,
  0x01143fb700007fedUL, 0x020620bd0000ca36UL, 0x020622da0000b971UL, 0x0236236e000071aeUL,
  0x01f90a9700004e7aUL, 0x016b2a5300000830UL, 0x025228510000d498UL, 0x021a0f9c00006837UL,
  0x0080220100006b72UL, 0x0174104c54007c00UL, 0x00087f8054020043UL, 0x550004030290120fUL,
  0x00000008000000c0UL, 0x0000000800000008UL, 0x0000000800000008UL, 0x0000000800000008UL,
  0x0000000800000008UL, 0x0000000800000008UL, 0x0000000800000008UL, 0x0000000800000008UL,
  0x00000011000000c9UL, 0x0000001100000011UL, 0x0000001100000011UL, 0x0000001100000011UL,
  0x0000001100000011UL, 0x0000001100000011UL, 0x0000001100000011UL, 0x000000d200000011UL,
  0x0000000056000683UL, 0x000000000000c000UL, 0x000000000000c000UL, 0x000000000000c000UL,
  0x000000000000c080UL, 0x000000000000c080UL, 0x000000000000c080UL, 0x000000000000c100UL,
  0x161d00000000c100UL, 0x000000000000d5f7UL, 0x000000000000d600UL, 0x000000000000d600UL,
  0x000000000000d680UL, 0x000000000000d680UL, 0x000000000000d680UL, 0x000000000000d700UL,
  0x000000000000d700UL, 0x6e9000000000d800UL, 0x000000000000d1d1UL, 0x0000000000003980UL,
  0x0000000000003a80UL, 0x0000000000003b00UL, 0x0000000000003c00UL, 0x0000000000003d00UL,
  0x0000000000003e00UL, 0x0000000000003e80UL, 0x008022c100003f80UL, 0x0041c0c06c007c00UL,
  0x200008926c0200e3UL, 0x0070007000e00700UL, 0x06ff000000000000UL, 0x0005000100df0000UL,
  0x14007c0000802001UL, 0x1402004300080100UL, 0x00024c0034311000UL, 0x00000000140500c3UL,
  0x0000000100024c00UL, 0x0000002400000000UL, 0x140c004200100000UL, 0x0000000700000006UL,
  0x00000002140d0043UL, 0x1411004334335c3fUL, 0x0000000000000000UL, 0x2c007c00008020c1UL,
  0x2c02004300080184UL, 0x000001b070e0a800UL, 0x000000002c0500c3UL, 0x0000000000000000UL,
  0x0000002400000000UL, 0x2c0c004200100000UL, 0x0000000700000006UL, 0x000000012c0d0043UL,
  0x2c11004370e0a9efUL, 0x0000000800000000UL, 0x30007c00008020e1UL, 0x3002004300080108UL,
  0x00018800342e0000UL, 0x00000000300500c3UL, 0x0000000000018800UL, 0x0000002400000000UL,
  0x300c004200100000UL, 0x0000000700000006UL, 0x00000002300d0043UL, 0x301100433431103fUL,
  0x0000000000000000UL, 0x0000000210007c00UL, 0x0000006410000424UL, 0x10007c0000000000UL,
  0x10007bc440000000UL, 0x0000000000000064UL, 0x0000000110007c00UL, 0x0000002d10097c00UL,
  0x00000001100c0043UL, 0x101c7c000000000dUL, 0x10227c0000000029UL, 0x10267c0000000015UL,
  0x3000200100000021UL, 0x001000353c007c00UL, 0x6400200154002001UL, 0x140020016c002001UL,
  0x30007fe42c002001UL, 0x0000000000000064UL, 0x0000000010097c00UL, 0x00000000100c0043UL,
  0x101c7c0000000000UL, 0x10227c0000000000UL, 0x10267c0000000000UL, 0x30007c0000000000UL,
  0x3000042400000002UL, 0x0000000000000064UL, 0x4000000030007c00UL, 0x0000006430007bc4UL,
  0x008000e100000000UL, 0x000000023c007c00UL, 0x000000643c000424UL, 0x3c007c0000000000UL,
  0x3c007bc440000000UL, 0x0000000000000064UL, 0x54007c0000800141UL, 0x5400042400881082UL,
  0x0000000000000064UL, 0x4088108054007c00UL, 0x0000006454007bc4UL, 0x0080020100000000UL,
  0x0800000264007c00UL, 0x0000006464000424UL, 0x64007c0000000000UL, 0x64007bc448000000UL,
  0x0000000000000064UL, 0x6c007c0000800281UL, 0x6c00042400420002UL, 0x0000000000000064UL,
  0x404200006c007c00UL, 0x000000646c007bc4UL, 0x008002c100000000UL, 0x0000000214007c00UL,
  0x0000006414000424UL, 0x14007c0000000000UL, 0x14007bc440000000UL, 0x0000000000000064UL,
  0x2c007c0000800001UL, 0x2c00042400000002UL, 0x0000000000000064UL, 0x400000002c007c00UL,
  0x000000642c007bc4UL, 0x008000c100000000UL, 0x008021610000009dUL, 0x0000005440007c00UL,
  0x04080303400200e3UL, 0x10b7400400001155UL, 0x037f000000700380UL, 0x00030008006f0000UL,
  0x00000000400a7c00UL, 0x00ffffae400c0043UL, 0x0080218100000000UL, 0x0000004044007c00UL,
  0x04080303440200e3UL, 0x10a3440000001155UL, 0x037f000000700380UL, 0x00070408006f0000UL,
  0x00000000440a7c00UL, 0x00ffffae440c0043UL, 0x008022a100000000UL, 0x0800000068000042UL,
  0x68020123156000fcUL, 0x0000000000098000UL, 0x0000c3ff00000003UL, 0x0000000000061fffUL,
  0x078403fd00000000UL, 0x680c004300000001UL, 0x2042204200000000UL, 0x00000001680b7c00UL,
  0x01b01c4569000803UL, 0x01e22c0400003ff6UL, 0x01c838ec000068aeUL, 0x01d03d040000e142UL,
  0x01c43afb00003cceUL, 0x01cd58400000f7c1UL, 0x02091a7e00000901UL, 0x01fa287f0000150aUL,
  0x01c82b1b00005c70UL, 0x01c315f10000ef5dUL, 0x01d1404b0000f557UL, 0x01bd07cf00000bc8UL,
  0x019f08ae0000c41cUL, 0x01cd3720000074e4UL, 0x01e445f70000ea61UL, 0x01cc1f6500005d9aUL,
  0x01cd4cad0000ffc5UL, 0x01f326d20000f6f2UL, 0x01ca143200009b25UL, 0x01e141bf00005829UL,
  0x01c50d3800002d7cUL, 0x01ef5d650000f29dUL, 0x01d1374a0000c504UL, 0x01d81b4b00001dc5UL,
  0x01ca3b0200007fd2UL, 0x01d5455c000020a6UL, 0x01ec500d0000b581UL, 0x01cf3601000002e8UL,
  0x01cf26b200001f52UL, 0x01d4226f0000a750UL, 0x01c42e6f000060baUL, 0x01cf322000001d78UL,
  0x0080222100008a93UL, 0x0174104c58007c00UL, 0x00087f8058020043UL, 0x590004030290220fUL,
  0x0000000000000000UL, 0x0000000000000000UL, 0x0000000000000000UL, 0x0000000000000000UL,
  0x0000000000000000UL, 0x0000000000000000UL, 0x0000000000000000UL, 0x0000000000000000UL,
  0x0000000000000000UL, 0x0000000000000000UL, 0x0000000000000000UL, 0x000000c100000000UL,
  0x0000000900000009UL, 0x0000000900000009UL, 0x0000000900000009UL, 0x000000ca00000009UL,
  0x0f1a00005a000483UL, 0x000000000000de49UL, 0x000000000000eb80UL, 0x000000000000ec80UL,
  0x000000000000ee00UL, 0x000000000000ef00UL, 0x000000000000f000UL, 0x000000000000f180UL,
  0x000000000000f280UL, 0x4b8300000000f400UL, 0x000000000000a96eUL, 0x0000000000003700UL,
  0x0000000000003800UL, 0x0000000000003980UL, 0x0000000000003a80UL, 0x0000000000003b80UL,
  0x0000000000003d00UL, 0x0000000000003e00UL, 0x008022e100003f80UL, 0x0041c0c070007c00UL,
  0x10000892700200e3UL, 0x00380038007001c0UL, 0x01bf000000000000UL, 0x00050001006f0000UL,
  0x34007c0000802101UL, 0x340200430008c100UL, 0x00018800342e0000UL, 0x00000000340500c3UL,
  0x0000000100031000UL, 0x0000002400000000UL, 0x340c004200100000UL, 0x0000000700000006UL,
  0x00000008340d0043UL, 0x341100433431103fUL, 0x0000000000000000UL, 0x24007c0000802081UL,
  0x240200430008c184UL, 0x0000120070e09400UL, 0x00000000240500c3UL, 0x0000000000000000UL,
  0x0000002400000000UL, 0x240c004200100000UL, 0x0000000700000006UL, 0x00000001240d0043UL,
  0x2411004370e0a63fUL, 0x0000000800000000UL, 0x18007c0000802021UL, 0x180200430008c100UL,
  0x00018800342f8800UL, 0x00000000180500c3UL, 0x0000000100031000UL, 0x0000002400000000UL,
  0x180c004200100000UL, 0x0000000700000006UL, 0x00000008180d0043UL, 0x181100433431103fUL,
  0x0000000000000000UL, 0x28007c00008020a1UL, 0x2802012300080008UL, 0x0038003834311000UL,
  0x0000070000200004UL, 0x0000000800000004UL, 0x0000002400018800UL, 0x280c004200100000UL,
  0x0000000700000006UL, 0x00000008280d0043UL, 0x281100433432983fUL, 0x0000000000000000UL,
  0x0000000210007c00UL, 0x0000006410000424UL, 0x10007c0000000000UL, 0x10007bc440000000UL,
  0x0000000000000064UL, 0x0000000110007c00UL, 0x0000002f10077c00UL, 0x00000011100f0043UL,
  0x1012006300000009UL, 0x0000000900000003UL, 0x101d7c0000000017UL, 0x10247c000000002bUL,
  0x10277c0000000019UL, 0x2800200100000023UL, 0x0000005540007c00UL, 0x0000004144007c00UL,
  0x6800200158002001UL, 0x1800200170002001UL, 0x3400200124002001UL, 0x0000006428007fe4UL,
  0x10077c0000000000UL, 0x100f004300000000UL, 0x0000000000000000UL, 0x0000000010120063UL,
  0x0000000000000000UL, 0x00000000101d7c00UL, 0x0000000010247c00UL, 0x0000000010277c00UL,
  0x0000000228007c00UL, 0x0000006428000424UL, 0x28007c0000000000UL, 0x28007bc440000000UL,
  0x0000000000000064UL, 0x40007c00008000a1UL, 0x4000042400000002UL, 0x0000000000000064UL,
  0x4000000040007c00UL, 0x0000006440007bc4UL, 0x0080016100000000UL, 0x0000000244007c00UL,
  0x0000006444000424UL, 0x44007c0000000000UL, 0x44007bc440000000UL, 0x0000000000000064UL,
  0x58007c0000800181UL, 0x5800042400881082UL, 0x0000000000000064UL, 0x4088108058007c00UL,
  0x0000006458007bc4UL, 0x0080022100000000UL, 0x0800000268007c00UL, 0x0000006468000424UL,
  0x68007c0000000000UL, 0x68007bc448000000UL, 0x0000000000000064UL, 0x70007c00008002a1UL,
  0x7000042400420002UL, 0x0000000000000064UL, 0x4042000070007c00UL, 0x0000006470007bc4UL,
  0x008002e100000000UL, 0x0000000218007c00UL, 0x0000006418000424UL, 0x18007c0000000000UL,
  0x18007bc440000000UL, 0x0000000000000064UL, 0x24007c0000800021UL, 0x2400042400000002UL,
  0x0000000000000064UL, 0x4000000024007c00UL, 0x0000006424007bc4UL, 0x0080008100000000UL,
  0x0000000234007c00UL, 0x0000006434000424UL, 0x34007c0000000000UL, 0x34007bc440000000UL,
  0x0000000000000064UL, 0x000000bd00800101UL, 0x48007c00008021a1UL, 0x480200e300000054UL,
  0x0000115504080303UL, 0x003801c010b74006UL, 0x0037000001bf0000UL, 0x480a7c0000030010UL,
  0x480c004300000000UL, 0x0000000000ffffd7UL, 0x3c007c0000802141UL, 0x3c0200e300000040UL,
  0x0000115504080303UL, 0x003801c010b74000UL, 0x0037000001bf0000UL, 0x3c0a7c0000070410UL,
  0x3c0c004300000000UL, 0x0000000000ffffd7UL, 0x40007c0000802161UL, 0x400200e300000040UL,
  0x0000115504080303UL, 0x003801c010b74000UL, 0x0037000001bf0000UL, 0x400a7c00000b0810UL,
  0x400c004300000000UL, 0x0000000000ffffd7UL, 0x44007c0000802181UL, 0x440200e300000040UL,
  0x0000115504080303UL, 0x003801c010a34600UL, 0x0037000001bf0000UL, 0x440a7c00000f0c10UL,
  0x440c004300000000UL, 0x0000000000ffffd7UL, 0x5c00004200802241UL, 0x156000fc08000000UL,
  0x000880005c020123UL, 0x0000000300000000UL, 0x00030fff000030ffUL, 0x0000000000000000UL,
  0x00000001070403fdUL, 0x000000005c0c0043UL, 0x5c0b7c0020422042UL, 0x5d00100300000001UL,
  0x0000aae50066469dUL, 0x000038ef0064256cUL, 0x00006d6d00672fc2UL, 0x0000cf8100711982UL,
  0x00009d24006320b9UL, 0x0000081e006424a9UL, 0x0000046f005e2a4aUL, 0x0000572b00692b43UL,
  0x00005ef0006429dcUL, 0x000028db00711bfcUL, 0x0000440800622249UL, 0x000041a00069423cUL,
  0x0000fe29008333eeUL, 0x0000d7c800633f2bUL, 0x000034e2006278e1UL, 0x00008bcc006c16bcUL,
  0x0000f5b700624334UL, 0x00000874007b3a71UL, 0x0000f919005f23e7UL, 0x0000f83100602e83UL,
  0x00004fbe006735b8UL, 0x0000166c00611636UL, 0x0000b92200522e72UL, 0x00005a450066544bUL,
  0x0000637800592982UL, 0x0000a9130066110aUL, 0x0000079400682c71UL, 0x0000b73a00694bf8UL,
  0x0000232f007545c5UL, 0x00007793007c2433UL, 0x000081e600611fc6UL, 0x0000b07000661d0fUL,
  0x0000923900633997UL, 0x0000c6a90067218cUL, 0x0000712a005e3620UL, 0x00003b0300481c95UL,
  0x000010ba00642d00UL, 0x00000c3a0064251dUL, 0x0000eb0b00692e48UL, 0x00005c53005e1caeUL,
  0x000038b900632f18UL, 0x00007a4b00600cceUL, 0x0000078d00675ce7UL, 0x00009f0f0063221aUL,
  0x00009ac9006045eaUL, 0x00009e6000662b0bUL, 0x00003e8a00684d72UL, 0x0000132a0064295bUL,
  0x00005d13006b0dacUL, 0x0000019400631e5cUL, 0x000026b7006029d6UL, 0x00009e1e00637546UL,
  0x00006a03006933bcUL, 0x0000d50900602953UL, 0x000005d400603672UL, 0x0000eae1006323f2UL,
  0x0000dedf005f4234UL, 0x00007e2700685391UL, 0x00005ea200602c27UL, 0x00006721006539e5UL,
  0x000084fe005e35ccUL, 0x0000bf9100512737UL, 0x00008ea9006125faUL, 0x00001d190061179dUL,
  0x54007c0000802201UL, 0x540200430174104cUL, 0x0290220f00087f80UL, 0x000000c055000403UL,
  0x0000000800000008UL, 0x0000000800000008UL, 0x0000000800000008UL, 0x0000000800000008UL,
  0x0000000800000008UL, 0x0000000800000008UL, 0x0000000800000008UL, 0x0000000800000008UL,
  0x0000000800000008UL, 0x0000000800000008UL, 0x000000c900000008UL, 0x0000001100000011UL,
  0x0000001100000011UL, 0x0000001100000011UL, 0x0000001100000011UL, 0x56000683000000d2UL,
  0x0000c00000000000UL, 0x0000c00000000000UL, 0x0000c00000000000UL, 0x0000c08000000000UL,
  0x0000c08000000000UL, 0x0000c10000000000UL, 0x0000c10000000000UL, 0x0000c18000000000UL,
  0x0000dc7d0e610000UL, 0x0000e78000000000UL, 0x0000e78000000000UL, 0x0000e88000000000UL,
  0x0000e98000000000UL, 0x0000eb0000000000UL, 0x0000ec0000000000UL, 0x0000ed0000000000UL,
  0x0000ee0000000000UL, 0x0000b07347e70000UL, 0x0000378000000000UL, 0x0000388000000000UL,
  0x0000398000000000UL, 0x00003a8000000000UL, 0x00003c0000000000UL, 0x00003d0000000000UL,
  0x00003e0000000000UL, 0x00003f0000000000UL, 0x6c007c00008022c1UL, 0x6c0200e30041c0c0UL,
  0x003800e010000892UL, 0x00000000001c001cUL, 0x0037000000df0000UL, 0x0080208100050001UL,
  0x0008c00024007c00UL, 0x3431100024020123UL, 0x0020000800380038UL, 0x0000002000000700UL,
  0x0000000000000001UL, 0x0010000000000024UL, 0x00000006240c0042UL, 0x240d004300000007UL,
  0x3432983f00000010UL, 0x0000000024110043UL, 0x0080210100000000UL, 0x0008c18434007c00UL,
  0x70dfa00034020043UL, 0x340500c300004800UL, 0x0000000000000000UL, 0x0000000000000000UL,
  0x0010000000000024UL, 0x00000006340c0042UL, 0x340d004300000007UL, 0x70dfe83f00000001UL,
  0x0000000034110043UL, 0x008020c100000008UL, 0x0008c0002c007c00UL, 0x343110082c020123UL,
  0x0020000800380038UL, 0x0000002000000700UL, 0x0000000000000001UL, 0x0010000000000024UL,
  0x000000062c0c0042UL, 0x2c0d004300000007UL, 0x3432983f00000010UL, 0x000000002c110043UL,
  0x008020a100000000UL, 0x0008c00028007c00UL, 0x3431101028020123UL, 0x0020000800380038UL,
  0x0000002000000700UL, 0x0000000000000001UL, 0x0010000000000024UL, 0x00000006280c0042UL,
  0x280d004300000007UL, 0x3432983f00000010UL, 0x0000000028110043UL, 0x0080200100000000UL,
  0x0008c00014007c00UL, 0x3431101814020123UL, 0x0020000800380038UL, 0x0000002000000700UL,
  0x0000000000000001UL, 0x0010000000000024UL, 0x00000006140c0042UL, 0x140d004300000007UL,
  0x3432983f00000010UL, 0x0000000014110043UL, 0x0080206100000000UL, 0x0008000820007c00UL,
  0x3432980020020123UL, 0x00400004001c001cUL, 0x0000000400000700UL, 0x0000c40000000010UL,
  0x0010000000000024UL, 0x00000006200c0042UL, 0x200d004300000007UL, 0x34335c3f00000010UL,
  0x0000000020110043UL, 0x10007c0000000000UL, 0x1000042400000002UL, 0x0000000000000064UL,
  0x4000000010007c00UL, 0x0000006410007bc4UL, 0x10007c0000000000UL, 0x10057c0000000001UL,
  0x100c01630000002dUL, 0x000000110000000dUL, 0x0000000b0000001bUL, 0x0000001500000011UL,
  0x0000001100000001UL, 0x0000000900000017UL, 0x101c7c0000000011UL, 0x101e7c0000000025UL,
  0x10267c0000000019UL, 0x2000200100000021UL, 0x000000413c007c00UL, 0x0000004140007c00UL,
  0x0000004144007c00UL, 0x0000005548007c00UL, 0x5c00200154002001UL, 0x140020016c002001UL,
  0x2800200124002001UL, 0x340020012c002001UL, 0x0000006420007fe4UL, 0x10057c0000000000UL,
  0x100c016300000000UL, 0x0000000000000000UL, 0x0000000000000000UL, 0x0000000000000000UL,
  0x0000000000000000UL, 0x0000000000000000UL, 0x101c7c0000000000UL, 0x101e7c0000000000UL,
  0x10267c0000000000UL, 0x20007c0000000000UL, 0x2000042400000002UL, 0x0000000000000064UL,
  0x4000000020007c00UL, 0x0000006420007bc4UL, 0x0080006100000000UL, 0x000000023c007c00UL,
  0x000000643c000424UL, 0x3c007c0000000000UL, 0x3c007bc440000000UL, 0x0000000000000064UL,
  0x40007c0000800141UL, 0x4000042400000002UL, 0x0000000000000064UL, 0x4000000040007c00UL,
  0x0000006440007bc4UL, 0x0080016100000000UL, 0x0000000244007c00UL, 0x0000006444000424UL,
  0x44007c0000000000UL, 0x44007bc440000000UL, 0x0000000000000064UL, 0x48007c0000800181UL,
  0x4800042400000002UL, 0x0000000000000064UL, 0x4000000048007c00UL, 0x0000006448007bc4UL,
  0x008001a100000000UL, 0x0088108254007c00UL, 0x0000006454000424UL, 0x54007c0000000000UL,
  0x54007bc440881080UL, 0x0000000000000064UL, 0x5c007c0000800201UL, 0x5c00042408000002UL,
  0x0000000000000064UL, 0x480000005c007c00UL, 0x000000645c007bc4UL, 0x0080024100000000UL,
  0x004200026c007c00UL, 0x000000646c000424UL, 0x6c007c0000000000UL, 0x6c007bc440420000UL,
  0x0000000000000064UL, 0x14007c00008002c1UL, 0x1400042400000002UL, 0x0000000000000064UL,
  0x4000000014007c00UL, 0x0000006414007bc4UL, 0x0080000100000000UL, 0x0000000224007c00UL,
  0x0000006424000424UL, 0x24007c0000000000UL, 0x24007bc440000000UL, 0x0000000000000064UL,
  0x28007c0000800081UL, 0x2800042400000002UL, 0x0000000000000064UL, 0x4000000028007c00UL,
  0x0000006428007bc4UL, 0x008000a100000000UL, 0x000000022c007c00UL, 0x000000642c000424UL,
  0x2c007c0000000000UL, 0x2c007bc440000000UL, 0x0000000000000064UL, 0x34007c00008000c1UL,
  0x3400042400000002UL, 0x0000000000000064UL, 0x4000000034007c00UL, 0x0000006434007bc4UL,
  0x0080010100000000UL, 0x00802141000000ddUL, 0x000003503c007c00UL, 0x040803033c020123UL,
  0x10b7400600001155UL, 0x00df0000001c00e0UL, 0x00030010001b0000UL, 0x0000000000010102UL,
  0x00ffffcf3c0c0043UL, 0x0080216100000000UL, 0x0000004040007c00UL, 0x04080303400200e3UL,
  0x10b7400000001155UL, 0x00df0000001c00e0UL, 0x00070410001b0000UL, 0x00000000400a7c00UL,
  0x00ffffcf400c0043UL, 0x0080218100000000UL, 0x0000004044007c00UL, 0x04080303440200e3UL,
  0x10b7400000001155UL, 0x00df0000001c00e0UL, 0x000b0810001b0000UL, 0x00000000440a7c00UL,
  0x00ffffcf440c0043UL, 0x008021a100000000UL, 0x0000004048007c00UL, 0x04080303480200e3UL,
  0x10a3460000001155UL, 0x00df0000001c00e0UL, 0x000f0c10001b0000UL, 0x00000000480a7c00UL,
  0x00ffffcf480c0043UL, 0x0080226100000000UL, 0x0800000060000042UL, 0x60020123156000fcUL,
  0x0000000000088000UL, 0x00000c3f00000003UL, 0x00000000000187ffUL, 0x060403fd00000000UL,
  0x600c004300000001UL, 0x2042204200000000UL, 0x00000001600b7c00UL, 0x0030198961002003UL,
  0x00402496000038c9UL, 0x003c155300005479UL, 0x002e1e63000056a5UL, 0x002a15040000f541UL,
  0x00341f6c0000bde0UL, 0x002c1b3d00008e41UL, 0x003522e10000f072UL, 0x002b1a880000562eUL,
  0x002d2b920000134bUL, 0x002623ab0000ace7UL, 0x002e35c600001f35UL, 0x0015203c00007c0eUL,
  0x00442767000020feUL, 0x002e1f620000798bUL, 0x003b19f90000cbe4UL, 0x00341dc40000c7b7UL,
  0x002d17640000e56bUL, 0x002e1c93000000f0UL, 0x00341c9c0000033fUL, 0x0033128700008989UL,
  0x002917200000e575UL, 0xffff2ba9000029b5UL, 0x002d2fc90000a766UL, 0x002022e700009aa8UL,
  0x002b29d400007797UL, 0x003124d100008c51UL, 0x00272bc900003fd9UL, 0x002e2a7d0000ffd7UL,
  0x0028178e00006a0cUL, 0x00352eec00007f6bUL, 0x00311bae000084eaUL, 0x003129f50000b2dcUL,
  0x0024179600005ec8UL, 0x003423eb0000da00UL, 0x00171207000009ebUL, 0x001a17d600005027UL,
  0x002c207000001439UL, 0x002e3ca000000a22UL, 0x00341a120000fb78UL, 0x00241d1a00008d84UL,
  0x002b199e0000b4fdUL, 0x002d16ba0000acbeUL, 0x002c3c190000d851UL, 0x002036a600003857UL,
  0x00281cdb00005537UL, 0x0029259a0000a669UL, 0x003d206e00009551UL, 0x002f25880000d49eUL,
  0x002a26c10000537dUL, 0x00312f0d0000b99dUL, 0x002122840000cf49UL, 0x002b1c4300002b92UL,
  0x001f115200003beeUL, 0x002d13bb0000bed0UL, 0x003419da0000bd2eUL, 0x002a16400000333bUL,
  0x002a2e680000fb9aUL, 0x002136cd00007ef9UL, 0x0021183d0000b38bUL, 0x001f169c0000bc1dUL,
  0x001746fe000099feUL, 0x00283d3b00007a8eUL, 0x002a3124000061ddUL, 0x002617990000149cUL,
  0x00221b4000006fecUL, 0x002a1c2600007776UL, 0x00201f5100003bdeUL, 0x0030281f000023f4UL,
  0x00241d770000c718UL, 0x00034e3c0000090fUL, 0x003318bb00000e0aUL, 0x003317300000ac83UL,
  0x00311fbb0000d836UL, 0x002722da0000643aUL, 0x000d101d0000c120UL, 0x002c1a6c00008a4dUL,
  0x002c24bc0000aae9UL, 0x00261ab300002270UL, 0x00251d6d00006c7aUL, 0x002c211e00009454UL,
  0x00342ac700003127UL, 0x001f12500000603bUL, 0x00253d0200004092UL, 0x001e204c0000c266UL,
  0x003f1739000064dbUL, 0x00262efa000097c7UL, 0x000d266f0000637dUL, 0x0029271e00007439UL,
  0x002c242100000220UL, 0x002e28720000553eUL, 0x00261689000033b8UL, 0x0024299b0000ec47UL,
  0x003e1f6f0000c716UL, 0x002f257000009e95UL, 0x002516e00000c404UL, 0x00321de400005c96UL,
  0x001f2d1700009de5UL, 0x003d104500006b7cUL, 0x002c0d99000025a8UL, 0x00371e0d000058ceUL,
  0x001e0e4c0000bc6dUL, 0x00292052000047e1UL, 0x002c24e50000a182UL, 0x0035230300003476UL,
  0x003e1d120000159eUL, 0x00292bd90000feddUL, 0x0029282d0000d87dUL, 0x002d1c43000090a8UL,
  0x001f142c0000f52eUL, 0x00283c930000a350UL, 0x002f23ae0000aff2UL, 0x00361e160000648dUL,
  0x00281f170000bb46UL, 0x0029106000007ad6UL, 0x002b155000003eaaUL, 0x003315270000033bUL,
  0x00031fe60000d869UL, 0x002d26490000737eUL, 0x002c237e0000886fUL, 0x00241eab0000c450UL,
  0x00301db900006605UL, 0x003324e700004458UL, 0x00320bf300002ff8UL, 0x002c218800001b28UL,
  0x003422d40000e0c1UL, 0x00333cda00009678UL, 0x00301fb300009e19UL, 0x0080222100000b33UL,
  0x0174104c58007c00UL, 0x00087f8058020043UL, 0x590004030290120fUL, 0x00000008000000c0UL,
  0x0000000800000008UL, 0x0000000800000008UL, 0x0000000800000008UL, 0x0000000800000008UL,
  0x0000000800000008UL, 0x0000000800000008UL, 0x0000000800000008UL, 0x0000000800000008UL,
  0x00000011000000c9UL, 0x0000001100000011UL, 0x0000001100000011UL, 0x0000001100000011UL,
  0x0000001100000011UL, 0x0000001100000011UL, 0x000000d200000011UL, 0x000000005a000683UL,
  0x000000000000c000UL, 0x000000000000c000UL, 0x000000000000c000UL, 0x000000000000c080UL,
  0x000000000000c080UL, 0x000000000000c080UL, 0x000000000000c100UL, 0x181f00000000c100UL,
  0x000000000000d7dbUL, 0x000000000000db00UL, 0x000000000000db00UL, 0x000000000000db00UL,
  0x000000000000db80UL, 0x000000000000db80UL, 0x000000000000dc00UL, 0x000000000000dc00UL,
  0x789b00000000dd00UL, 0x000000000000c745UL, 0x0000000000003880UL, 0x0000000000003980UL,
  0x0000000000003a00UL, 0x0000000000003b00UL, 0x0000000000003c00UL, 0x0000000000003d00UL,
  0x0000000000003e00UL, 0x008022e100003f00UL, 0x0041c0c070007c00UL, 0x10000892700200e3UL,
  0x000e000e001c0070UL, 0x006f000000000000UL, 0x00050001001b0000UL, 0x2c007c00008020c1UL,
  0x2c0201230008c000UL, 0x001c001c34329800UL, 0x0000070000400008UL, 0x0000000200000020UL,
  0x0000002400000000UL, 0x2c0c004200100000UL, 0x0000000700000006UL, 0x000000402c0d0043UL,
  0x2c11004334335c3fUL, 0x0000000000000000UL, 0x24007c0000802081UL, 0x240200430008c184UL,
  0x0001200070de8000UL, 0x00000000240500c3UL, 0x0000000000000000UL, 0x0000002400000000UL,
  0x240c004200100000UL, 0x0000000700000006UL, 0x00000001240d0043UL, 0x2411004370dfa03fUL,
  0x0000000800000000UL, 0x1c007c0000802041UL, 0x1c0200430088c100UL, 0x00000c40342e9300UL,
  0x000000001c0500c3UL, 0x0000000000000000UL, 0x0000002400000000UL, 0x1c0c004200100000UL,
  0x0000000700000006UL, 0x000000401c0d0043UL, 0x1c110043342eabbfUL, 0x0000000000000000UL,
  0x34007c0000802101UL, 0x340201230008c000UL, 0x001c001c34329808UL, 0x0000070000400008UL,
  0x0000000200000020UL, 0x0000002400000000UL, 0x340c004200100000UL, 0x0000000700000006UL,
  0x00000040340d0043UL, 0x3411004334335c3fUL, 0x0000000000000000UL, 0x38007c0000802121UL,
  0x380201230008c000UL, 0x001c001c34329810UL, 0x0000070000400008UL, 0x0000000200000020UL,
  0x0000002400000000UL, 0x380c004200100000UL, 0x0000000700000006UL, 0x00000040380d0043UL,
  0x3811004334335c3fUL, 0x0000000000000000UL, 0x20007c0000802061UL, 0x200201230008c000UL,
  0x001c001c34329818UL, 0x0000070000400008UL, 0x0000000200000020UL, 0x0000002400000000UL,
  0x200c004200100000UL, 0x0000000700000006UL, 0x00000040200d0043UL, 0x2011004334335c3fUL,
  0x0000000000000000UL, 0x18007c0000802021UL, 0x1802004300880108UL, 0x00000c40342e9300UL,
  0x00000000180500c3UL, 0x0000000000000000UL, 0x0000002400000000UL, 0x180c004200100000UL,
  0x0000000700000006UL, 0x00000040180d0043UL, 0x18110043342eabbfUL, 0x0000000000000000UL,
  0x14007c0000802001UL, 0x1402012300080008UL, 0x000e000e342e0000UL, 0x0000070000800004UL,
  0x0000002000000004UL, 0x0000002400006200UL, 0x140c004200100000UL, 0x0000000700000006UL,
  0x00000020140d0043UL, 0x14110043342e623fUL, 0x0000000000000000UL, 0x0000000210007c00UL,
  0x0000006410000424UL, 0x10007c0000000000UL, 0x10007bc440000000UL, 0x0000000000000064UL,
  0x0000000110007c00UL, 0x0000002f10020043UL, 0x100c01830000001bUL, 0x000000090000000dUL,
  0x0000001100000005UL, 0x0000001500000009UL, 0x0000000900000013UL, 0x0000000700000017UL,
  0x0000001900000009UL, 0x00000027101d7c00UL, 0x011b011a10207c00UL, 0x0000002310277c00UL,
  0x1800200114002001UL, 0x000003513c007c00UL, 0x0000004140007c00UL, 0x0000004144007c00UL,
  0x0000004148007c00UL, 0x6000200158002001UL, 0x1c00200170002001UL, 0x2400200120002001UL,
  0x340020012c002001UL, 0x14007fe438002001UL, 0x0000000000000064UL, 0x0000006418007fe4UL,
  0x1002004300000000UL, 0x0000000000000000UL, 0x00000000100c0183UL, 0x0000000000000000UL,
  0x0000000000000000UL, 0x0000000000000000UL, 0x0000000000000000UL, 0x0000000000000000UL,
  0x101d7c0000000000UL, 0x10207c0000000000UL, 0x10277c0000000000UL, 0x14007c0000000000UL,
  0x1400042400000002UL, 0x0000000000000064UL, 0x4000000014007c00UL, 0x0000006414007bc4UL,
  0x0080000100000000UL, 0x0000000218007c00UL, 0x0000006418000424UL, 0x18007c0000000000UL,
  0x18007bc440000000UL, 0x0000000000000064UL, 0x3c007c0000800021UL, 0x3c00042400000002UL,
  0x0000000000000064UL, 0x400000003c007c00UL, 0x000000643c007bc4UL, 0x0080014100000000UL,
  0x0000000240007c00UL, 0x0000006440000424UL, 0x40007c0000000000UL, 0x40007bc440000000UL,
  0x0000000000000064UL, 0x44007c0000800161UL, 0x4400042400000002UL, 0x0000000000000064UL,
  0x4000000044007c00UL, 0x0000006444007bc4UL, 0x0080018100000000UL, 0x0000000248007c00UL,
  0x0000006448000424UL, 0x48007c0000000000UL, 0x48007bc440000000UL, 0x0000000000000064UL,
  0x58007c00008001a1UL, 0x5800042400881082UL, 0x0000000000000064UL, 0x4088108058007c00UL,
  0x0000006458007bc4UL, 0x0080022100000000UL, 0x0800000260007c00UL, 0x0000006460000424UL,
  0x60007c0000000000UL, 0x60007bc448000000UL, 0x0000000000000064UL, 0x70007c0000800261UL,
  0x7000042400420002UL, 0x0000000000000064UL, 0x4042000070007c00UL, 0x0000006470007bc4UL,
  0x008002e100000000UL, 0x000000021c007c00UL, 0x000000641c000424UL, 0x1c007c0000000000UL,
  0x1c007bc440000000UL, 0x0000000000000064UL, 0x20007c0000800041UL, 0x2000042400000002UL,
  0x0000000000000064UL, 0x4000000020007c00UL, 0x0000006420007bc4UL, 0x0080006100000000UL,
  0x0000000224007c00UL, 0x0000006424000424UL, 0x24007c0000000000UL, 0x24007bc440000000UL,
  0x0000000000000064UL, 0x2c007c0000800081UL, 0x2c00042400000002UL, 0x0000000000000064UL,
  0x400000002c007c00UL, 0x000000642c007bc4UL, 0x008000c100000000UL, 0x0000000234007c00UL,
  0x0000006434000424UL, 0x34007c0000000000UL, 0x34007bc440000000UL, 0x0000000000000064UL,
  0x38007c0000800101UL, 0x3800042400000002UL, 0x0000000000000064UL, 0x4000000038007c00UL,
  0x0000006438007bc4UL, 0x0080012100000000UL, 0x00802141000000fdUL, 0x000003503c007c00UL,
  0x040803033c020123UL, 0x10b7400700001155UL, 0x006f0000000e0070UL, 0x00030010000d0000UL,
  0x0000000000030104UL, 0x00ffffb83c0c0043UL, 0x0080216100000000UL, 0x0000004040007c00UL,
  0x04080303400200e3UL, 0x10b7400000001155UL, 0x006f0000000e0070UL, 0x00070410000d0000UL,
  0x00000000400a7c00UL, 0x00ffffb8400c0043UL, 0x0080218100000000UL, 0x0000004044007c00UL,
  0x04080303440200e3UL, 0x10b7400000001155UL, 0x006f0000000e0070UL, 0x000b0810000d0000UL,
  0x00000000440a7c00UL, 0x00ffffb8440c0043UL, 0x008021a100000000UL, 0x0000004048007c00UL,
  0x04080303480200e3UL, 0x10a3470000001155UL, 0x006f0000000e0070UL, 0x000f0c10000d0000UL,
  0x00000000480a7c00UL, 0x00ffffb8480c0043UL, 0x0080228100000000UL, 0x0800000064000042UL,
  0x64020123156000fcUL, 0x0000000000080000UL, 0x0000030f00000003UL, 0x000000000000c3ffUL,
  0x040403fd00000000UL, 0x640c004300000001UL, 0x2042204200000000UL, 0x00000001640b7c00UL,
  0xfff32a2665004003UL, 0xfff01e0b00005139UL, 0xfff817fe0000b286UL, 0xfff0151f000095b9UL,
  0xfff519d300007e11UL, 0xfff6203f0000eed4UL, 0xfff20ec4000081e5UL, 0xfff513750000d2ddUL,
  0xfff317a500007a25UL, 0xfff3135f00004c17UL, 0xfff411ac0000a3f6UL, 0xfff213f90000d05bUL,
  0xfff60dec00005ba5UL, 0xfff6179600003076UL, 0xfff614ad00009749UL, 0xfff32ad500007fe2UL,
  0xfff20e8700009ca7UL, 0xfff410cd0000accfUL, 0xfff21bbd0000435fUL, 0xfff40dcb000073e6UL,
  0xfff6124500004d59UL, 0xfff314510000fa8cUL, 0xfff7118100001eaeUL, 0xfff70e8a0000b3b1UL,
  0xfff0161f0000c8e2UL, 0xfff617130000c424UL, 0xffef109100006c73UL, 0xfff80df9000011a0UL,
  0xfff11bd90000bbe3UL, 0xfff41a1300000536UL, 0xfff219ce00009e43UL, 0xfff92bb900003d4eUL,
  0xfff40c9f0000d9ecUL, 0xfff6184100009b00UL, 0xffed29c30000ce28UL, 0xfff20e95000024a7UL,
  0xfff4139e0000d250UL, 0xfff21efa00008aadUL, 0xfffa19eb000068a8UL, 0xffee117f0000dc6dUL,
  0xfff70ec20000f131UL, 0xfff51a3b00008fc2UL, 0xffee100700009defUL, 0xfff50f7c000076f3UL,
  0xfff71a190000dbbdUL, 0xfff5169300007033UL, 0xfff41bfe00009a9cUL, 0xfff7178d0000bd57UL,
  0xfff50f2400002605UL, 0xfff4106d0000217eUL, 0xfff31a9a00007966UL, 0xfff5152b0000600eUL,
  0xfff518e100009b89UL, 0xfff81aee0000180eUL, 0xfff6111200006777UL, 0xfff111c40000f67eUL,
  0xfff61018000071cfUL, 0xfff31336000018cbUL, 0xfff41467000049f6UL, 0xfff418850000e50cUL,
  0xfff12f9a0000f37dUL, 0xfffb24a50000089aUL, 0xffe30fff0000bc00UL, 0xfff123f6000027e1UL,
  0xfff40ff50000510eUL, 0xfff510ee0000ac7eUL, 0xfff3186800007c8aUL, 0xffec1d310000f1d0UL,
  0xfff40f020000917fUL, 0xffef493b0000b917UL, 0xfff1123e0000762eUL, 0xfff04d7400003d9eUL,
  0xfff5143b000081dcUL, 0xffea10ff00002ad6UL, 0xffed21c60000f089UL, 0xfff31a650000310bUL,
  0xfff410a70000e5e4UL, 0xfff511cc0000d005UL, 0xfff61c3e000055aeUL, 0xfff51a7b0000926fUL,
  0xfff7131a0000d4dcUL, 0xfff71f3c000045d5UL, 0xfff60ef500002bbeUL, 0xfff5154e00000472UL,
  0xfff5143b00003386UL, 0xfff617de00003c36UL, 0xfff7185000008d7aUL, 0xfff5192c00007215UL,
  0xfff51b2b000020dfUL, 0xfff6149700000a7cUL, 0xfff7132d00008637UL, 0xfff50f8000003114UL,
  0xfff70a54000076dbUL, 0xfff418f60000b7fbUL, 0xfffe0f70000032c6UL, 0xfff21e860000ee3bUL,
  0xfff61b6900009af5UL, 0xfff6140000002c71UL, 0xfff80f480000f75fUL, 0xfffa16250000ad23UL,
  0xfff713fe0000b0b6UL, 0xfff520010000f976UL, 0xfff40d5b00004fddUL, 0xfff610fa00000d64UL,
  0xfff911dd00003224UL, 0xfff416970000ee7dUL, 0xfff519f70000e34dUL, 0xfff817c90000b5ffUL,
  0xfff710d000004d9bUL, 0xfffa164700000839UL, 0xfff30b35000062d9UL, 0xfff2158d0000a9c3UL,
  0xfff612870000ceaaUL, 0xfff60dec00002a18UL, 0xfff7116300009c40UL, 0xfff521c200004cd4UL,
  0xfff81214000004e1UL, 0xffe1250100007703UL, 0xfff20ea90000ed6dUL, 0xfff21a1500009090UL,
  0xfff222d30000cb09UL, 0xfff9106500007e9aUL, 0xfff413e60000ceddUL, 0xfff514a60000dce6UL,
  0xfff11b560000fe94UL, 0xfff616bf0000e690UL, 0xfff410520000b096UL, 0xfff71aaf0000f5ecUL,
  0xfff611e300007315UL, 0xfff91e440000cab9UL, 0xfff7102c00005f0dUL, 0xfff42080000059aeUL,
  0xfff510ca00000774UL, 0xfff61ca000009900UL, 0xfff11d530000d080UL, 0xffee167e0000a937UL,
  0xfff617e20000fa87UL, 0xfff516d00000f08dUL, 0xfff60d3600008b7fUL, 0xfff46b410000b3a1UL,
  0xfffb0c8c0000bb55UL, 0xfff3134c0000652aUL, 0xfff10c3600009f48UL, 0xffe11a170000f685UL,
  0xfff310e200008925UL, 0xfff314aa00004a0cUL, 0xfff30db1000070cbUL, 0xfff21e5d00007a29UL,
  0xfff41af100007d84UL, 0xfffe19e700006120UL, 0xfff80e9900005bccUL, 0xfff438540000585bUL,
  0xfff70f3700005928UL, 0xfff246fd0000537fUL, 0xfffa105e0000ac8aUL, 0xfff013bb00002964UL,
  0xfff728ef00007bfaUL, 0xfff30f0c0000bc5aUL, 0xfff611e80000e214UL, 0xfff00c6a000032b3UL,
  0xfff21b1400007292UL, 0xfff714fd0000d912UL, 0xfff7193700008417UL, 0xfff3240e0000ec96UL,
  0xfff810440000ea1dUL, 0xfff60e660000fc71UL, 0xfff520cc00000ea6UL, 0xfff20f0100003e5fUL,
  0xfff818a9000099f5UL, 0xfff529180000e004UL, 0xfff911120000228bUL, 0xffeb169d0000f28eUL,
  0xffef18be00008bffUL, 0xfff111e800007134UL, 0xfff81d9b00008f01UL, 0xfff70d9f0000bcedUL,
  0xffed17a60000e5ceUL, 0xfff216ce00002b9cUL, 0xfff415fc00000379UL, 0xffef148f00005a76UL,
  0xfff717080000b030UL, 0xfff727660000ebd1UL, 0xfff11d8f0000cfe1UL, 0xfff31aa80000678aUL,
  0xfff02e8d000028caUL, 0xfff21a040000c305UL, 0xfff812a50000da99UL, 0xfff512eb00005acfUL,
  0xfff61f500000d1a4UL, 0xfff9164c000012f2UL, 0xffee12400000d6f8UL, 0xfff41978000003c9UL,
  0xfff60eb400006c80UL, 0xffed0fed0000222aUL, 0xfff517120000a26dUL, 0xfff50fbf00000582UL,
  0xfff2118f000076edUL, 0xffe91a6100006114UL, 0xfff61d5500001284UL, 0xfff50e6c0000655dUL,
  0xfff2359700004cf5UL, 0xfff81a0f0000f3b8UL, 0xfff21c84000038b3UL, 0xfff6161e0000132cUL,
  0xfff5148800001ad6UL, 0xfff51ad30000bbd9UL, 0xffef126700008737UL, 0xfff814ec00006ffdUL,
  0xfff9105300003a3cUL, 0xfff7121b00009e46UL, 0xfff61de90000b295UL, 0xfff6161b0000a613UL,
  0xfff9136c0000c63dUL, 0xfff5126c0000c608UL, 0xfff80fa10000f8daUL, 0xfff513bc0000b9ebUL,
  0xfff80afe0000fcdfUL, 0xfff4124f0000f05eUL, 0xfff11d580000353bUL, 0xfff71b1500006012UL,
  0xfff7102700006951UL, 0xfff72fa400003589UL, 0xfff410be0000d10bUL, 0xfff50d460000d635UL,
  0xfff50f750000ca4bUL, 0xfff911660000332eUL, 0xfffa16050000c09cUL, 0xfff815d40000a15fUL,
  0xfff10cfb00009491UL, 0xfffb11600000b30eUL, 0xfff60eec00005d5aUL, 0xfff514e7000086f0UL,
  0xfff5123a0000815cUL, 0xffee134d0000950bUL, 0xfff40fa80000c9f7UL, 0xfff0121e00009a8aUL,
  0xfff70e7d000057b4UL, 0xffeb171900002a9dUL, 0xfff61cca00005d66UL, 0xffec11220000a3afUL,
  0xfff611b900002eadUL, 0xffef175c0000e80dUL, 0xfff61ec00000cae5UL, 0xfff60f6000001c8bUL,
  0xfff431190000b195UL, 0xfff71dcd00009e6eUL, 0xffee10d90000c1f8UL, 0xfff31d9f00000623UL,
  0xfffa0df000000afcUL, 0xfff81d1f0000a4c9UL, 0xfff7097700003e9aUL, 0xfff512650000a419UL,
  0xfff80b600000525aUL, 0xfff60dbc00001c1bUL, 0xfff7142e0000a0faUL, 0xfff30ede000015aeUL,
  0x0080220100001631UL, 0x0174104c54007c00UL, 0x00087f8054020043UL, 0x550004030290120fUL,
  0x00000008000000c0UL, 0x0000000800000008UL, 0x0000000800000008UL, 0x0000000800000008UL,
  0x0000000800000008UL, 0x0000000800000008UL, 0x0000000800000008UL, 0x000000c900000008UL,
  0x0000001100000011UL, 0x0000001100000011UL, 0x0000001100000011UL, 0x0000001100000011UL,
  0x0000001100000011UL, 0x0000001100000011UL, 0x0000001100000011UL, 0x000000d200000011UL,
  0x0000000056000683UL, 0x000000000000c000UL, 0x000000000000c000UL, 0x000000000000c080UL,
  0x000000000000c080UL, 0x000000000000c080UL, 0x000000000000c100UL, 0x000000000000c100UL,
  0x149800000000c100UL, 0x000000000000d4a0UL, 0x000000000000d380UL, 0x000000000000d380UL,
  0x000000000000d480UL, 0x000000000000d500UL, 0x000000000000d600UL, 0x000000000000d680UL,
  0x000000000000d780UL, 0x66f800000000d880UL, 0x000000000000d922UL, 0x0000000000003980UL,
  0x0000000000003a80UL, 0x0000000000003b80UL, 0x0000000000003c00UL, 0x0000000000003d00UL,
  0x0000000000003d80UL, 0x0000000000003e80UL, 0x008022c100003f80UL, 0x0041c0c06c007c00UL,
  0x100008926c0200e3UL, 0x00070007000e0038UL, 0x0037000000000000UL, 0x00050001000d0000UL,
  0x30007c00008020e1UL, 0x300201230008c000UL, 0x000e000e342e0000UL, 0x0000070000800008UL,
  0x0000000400000020UL, 0x0000002400000000UL, 0x300c004200100000UL, 0x0000000700000006UL,
  0x00000100300d0043UL, 0x30110043342e623fUL, 0x0000000000000000UL, 0x1c007c0000802041UL,
  0x1c0200430008c184UL, 0x0004800070da0000UL, 0x000000001c0500c3UL, 0x0000000000000000UL,
  0x0000002400000000UL, 0x1c0c004200100000UL, 0x0000000700000006UL, 0x000000011c0d0043UL,
  0x1c11004370de803fUL, 0x0000000800000000UL, 0x34007c0000802101UL, 0x340200430088c100UL,
  0x00000310342eab80UL, 0x00000000340500c3UL, 0x0000000000000000UL, 0x0000002400000000UL,
  0x340c004204900000UL, 0x0000000700000006UL, 0x00000100340d0043UL, 0x34110043342eb1dfUL,
  0x0000000000000000UL, 0x14007c0000802001UL, 0x140201230008c000UL, 0x000e000e342e0008UL,
  0x0000070000800008UL, 0x0000000400000020UL, 0x0000002400000000UL, 0x140c004200100000UL,
  0x0000000700000006UL, 0x00000100140d0043UL, 0x14110043342e623fUL, 0x0000000000000000UL,
  0x38007c0000802121UL, 0x380201230008c000UL, 0x000e000e342e0010UL, 0x0000070000800008UL,
  0x0000000400000020UL, 0x0000002400000000UL, 0x380c004200100000UL, 0x0000000700000006UL,
  0x00000100380d0043UL, 0x38110043342e623fUL, 0x0000000000000000UL, 0x18007c0000802021UL,
  0x180201230008c000UL, 0x000e000e342e0018UL, 0x0000070000800008UL, 0x0000000400000020UL,
  0x0000002400000000UL, 0x180c004200100000UL, 0x0000000700000006UL, 0x00000100180d0043UL,
  0x18110043342e623fUL, 0x0000000000000000UL, 0x24007c0000802081UL, 0x2402004300880108UL,
  0x00000310342eab80UL, 0x00000000240500c3UL, 0x0000000000000000UL, 0x0000002400000000UL,
  0x240c004200100000UL, 0x0000000700000006UL, 0x00000100240d0043UL, 0x24110043342eb1dfUL,
  0x0000000000000000UL, 0x20007c0000802061UL, 0x2002012300080008UL, 0x00070007342e6200UL,
  0x0000070001000004UL, 0x0000004000000004UL, 0x0000002400003100UL, 0x200c004200100000UL,
  0x0000000700000006UL, 0x00000040200d0043UL, 0x20110043342e933fUL, 0x0000000000000000UL,
  0x0000000210007c00UL, 0x0000006410000424UL, 0x10007c0000000000UL, 0x10007bc440000000UL,
  0x0000000000000064UL, 0x0000000110007c00UL, 0x0000002d10050043UL, 0x100c01830000001bUL,
  0x000000050000000fUL, 0x0000000100000011UL, 0x0000001500000005UL, 0x0000000500000013UL,
  0x0000000300000017UL, 0x0000001900000005UL, 0x00000029101c7c00UL, 0x011b031a10227c00UL,
  0x0000002110267c00UL, 0x2400200120002001UL, 0x000003513c007c00UL, 0x0000004140007c00UL,
  0x0000004144007c00UL, 0x0000004148007c00UL, 0x6400200154002001UL, 0x140020016c002001UL,
  0x1c00200118002001UL, 0x3400200130002001UL, 0x20007fe438002001UL, 0x0000000000000064UL,
  0x0000006424007fe4UL, 0x1005004300000000UL, 0x0000000000000000UL, 0x00000000100c0183UL,
  0x0000000000000000UL, 0x0000000000000000UL, 0x0000000000000000UL, 0x0000000000000000UL,
  0x0000000000000000UL, 0x101c7c0000000000UL, 0x10227c0000000000UL, 0x10267c0000000000UL,
  0x20007c0000000000UL, 0x2000042400000002UL, 0x0000000000000064UL, 0x4000000020007c00UL,
  0x0000006420007bc4UL, 0x0080006100000000UL, 0x0000000224007c00UL, 0x0000006424000424UL,
  0x24007c0000000000UL, 0x24007bc440000000UL, 0x0000000000000064UL, 0x3c007c0000800081UL,
  0x3c00042400000002UL, 0x0000000000000064UL, 0x400000003c007c00UL, 0x000000643c007bc4UL,
  0x0080014100000000UL, 0x0000000240007c00UL, 0x0000006440000424UL, 0x40007c0000000000UL,
  0x40007bc440000000UL, 0x0000000000000064UL, 0x44007c0000800161UL, 0x4400042400000002UL,
  0x0000000000000064UL, 0x4000000044007c00UL, 0x0000006444007bc4UL, 0x0080018100000000UL,
  0x0000000248007c00UL, 0x0000006448000424UL, 0x48007c0000000000UL, 0x48007bc440000000UL,
  0x0000000000000064UL, 0x54007c00008001a1UL, 0x5400042400881082UL, 0x0000000000000064UL,
  0x4088108054007c00UL, 0x0000006454007bc4UL, 0x0080020100000000UL, 0x0800000264007c00UL,
  0x0000006464000424UL, 0x64007c0000000000UL, 0x64007bc448000000UL, 0x0000000000000064UL,
  0x6c007c0000800281UL, 0x6c00042400420002UL, 0x0000000000000064UL, 0x404200006c007c00UL,
  0x000000646c007bc4UL, 0x008002c100000000UL, 0x0000000214007c00UL, 0x0000006414000424UL,
  0x14007c0000000000UL, 0x14007bc440000000UL, 0x0000000000000064UL, 0x18007c0000800001UL,
  0x1800042400000002UL, 0x0000000000000064UL, 0x4000000018007c00UL, 0x0000006418007bc4UL,
  0x0080002100000000UL, 0x000000021c007c00UL, 0x000000641c000424UL, 0x1c007c0000000000UL,
  0x1c007bc440000000UL, 0x0000000000000064UL, 0x30007c0000800041UL, 0x3000042400000002UL,
  0x0000000000000064UL, 0x4000000030007c00UL, 0x0000006430007bc4UL, 0x008000e100000000UL,
  0x0000000234007c00UL, 0x0000006434000424UL, 0x34007c0000000000UL, 0x34007bc440000000UL,
  0x0000000000000064UL, 0x38007c0000800101UL, 0x3800042400000002UL, 0x0000000000000064UL,
  0x4000000038007c00UL, 0x0000006438007bc4UL, 0x0080012100000000UL, 0x008021410000011dUL,
  0x000003503c007c00UL, 0x040803033c020123UL, 0x10a3470700001155UL, 0x0037000000070038UL,
  0x0000000100060000UL, 0x00000000001f0120UL, 0x00ffffa73c0c0043UL, 0x008022a100000000UL,
  0x0800000068000042UL, 0x68020123156000fcUL, 0x0000000000088000UL, 0x000000c300000003UL,
  0x00000000000061ffUL, 0x000403fd00000000UL, 0x680c004300000001UL, 0x2042204200000000UL,
  0x00000001680b7c00UL, 0x000023b369006003UL, 0x000c25a000001d10UL, 0x00072af80000e995UL,
  0xfffe1a2c00008b2dUL, 0xfff839800000301fUL, 0xffeb2d7e0000bc8cUL, 0x000725b90000a853UL,
  0x0002238900001a67UL, 0xffff22000000ffa2UL, 0xfffa36620000d61cUL, 0x000018cb000055fcUL,
  0xfff91a8a0000a145UL, 0x000327fa0000d774UL, 0xfffe312a0000daceUL, 0xfffb32a000001186UL,
  0x000813400000e4e1UL, 0xfffd48c6000050ddUL, 0x00072c5100001bb9UL, 0x00022d080000c4cfUL,
  0x000036c90000813eUL, 0x00001d6d000033b1UL, 0x000716780000b3d1UL, 0x00013138000032c1UL,
  0x00031c7d00002055UL, 0xfffa274d00001facUL, 0xfffb436200005da2UL, 0xfffd235e00006a2bUL,
  0xfffa245700009028UL, 0x000414ed0000b763UL, 0xfffe222800004c72UL, 0x000521af00004d3cUL,
  0xfffb20a50000e4f3UL, 0xffed22600000f540UL, 0xfffc279400007a96UL, 0x0003282c0000837fUL,
  0xffee417400000aa6UL, 0x0001177d000019fbUL, 0xfffc3a260000f9ebUL, 0xfffd27600000909dUL,
  0xfffe259800007db5UL, 0xfff528b10000e9b2UL, 0x0009181800009803UL, 0x000626b20000eb48UL,
  0xfff624820000f4f6UL, 0x00041ca900005facUL, 0xfffe216a00001fffUL, 0x00042f0700008833UL,
  0x0001251000002fd3UL, 0xfffb346200005916UL, 0x000a1a6700008f6eUL, 0x000020a100001130UL,
  0xfff9210d00003071UL, 0x0005247e00003e98UL, 0x000736720000e022UL, 0x00032f220000a009UL,
  0xffec22d30000ab68UL, 0x000625e100006ce1UL, 0xfffb215800006ae2UL, 0x000e145d0000a33cUL,
  0xfffd39a000009a32UL, 0x000b161900004ae7UL, 0xfffa23d500001faeUL, 0x00031fcb00001986UL,
  0x000424390000b27bUL, 0xfff2228600001721UL, 0x0008200b00006939UL, 0x00081b2b0000ba38UL,
  0xffff2be30000787eUL, 0x00073a1800008422UL, 0x000137d700001362UL, 0xfffb1ed700000fc7UL,
  0x0002317c0000d99cUL, 0xfffd1fdf00000cacUL, 0x00071b680000bf14UL, 0xfffe28680000e7d8UL,
  0xfff837fc000075a1UL, 0x0004292b000006a3UL, 0xffff328a0000b8efUL, 0x0001358f0000caddUL,
  0x000715ae00002291UL, 0x00031b5d0000e256UL, 0x00011c01000096e7UL, 0xfffa18be0000d597UL,
  0x00003bdd000026c7UL, 0x00113b2800008365UL, 0xfffb271f00004cafUL, 0xfff12abc0000d5c4UL,
  0x000b1d5f0000183aUL, 0x0000284f00003182UL, 0x000b211f0000dc8eUL, 0x00081f960000b962UL,
  0x00062cc400000e08UL, 0x000b17fe0000efeaUL, 0x00081d1500003382UL, 0xfff14c9b0000a02bUL,
  0xfffa27ae0000b1feUL, 0x00081c3300008fbdUL, 0xfffe1d450000a619UL, 0xffed1acc00005a2dUL,
  0x000b186c0000bf8cUL, 0xfffb261200004e04UL, 0xfff5328700000aa7UL, 0x00011b720000d5cdUL,
  0xfffb1bbf0000d3a9UL, 0x000a1acd0000f017UL, 0xffff29160000a60eUL, 0x00061c8e0000dfaeUL,
  0x00051621000006e0UL, 0x000327cf000074e2UL, 0xfffb276600006c50UL, 0x00091ab20000e199UL,
  0x00021ed90000e4d1UL, 0x000413b400000fd1UL, 0x000337ad00003b93UL, 0x000a372d000083f1UL,
  0xfff821d000006b6cUL, 0x000229350000d298UL, 0xfffd3711000035b6UL, 0x000a2a060000dabcUL,
  0x000914570000eca4UL, 0xfffe24fc0000c428UL, 0xfff41ed900002e28UL, 0xfff567a800004985UL,
  0x000913b200009165UL, 0x0005221900000984UL, 0xfffc27960000064dUL, 0xfff846390000f840UL,
  0x000b12fa0000978dUL, 0x00081d430000e1b8UL, 0xfff51fcd0000f178UL, 0x0000225600008d74UL,
  0x00083968000039efUL, 0xffff1e6f00005194UL, 0xfffd20720000d70aUL, 0xfff331550000bbc8UL,
  0x00082abc00003603UL, 0x00061893000089bfUL, 0x00051abc0000254fUL, 0x000a2a3e00001564UL,
  0xfff81abd0000dc73UL, 0xfff814a70000d4a0UL, 0x000417e90000a8efUL, 0xffe925500000cf05UL,
  0xffff248b0000ad9fUL, 0x000c150b000098b8UL, 0x00091a040000f4b8UL, 0xfffe199a0000553cUL,
  0xfff1261b000017ceUL, 0xffff344900004f47UL, 0xffff2ab80000de8eUL, 0x00081ab100009595UL,
  0xfffd250200001177UL, 0xfff221020000f1b6UL, 0xfff333690000e790UL, 0xfffd200b000075daUL,
  0x0003284f00002d63UL, 0xfffa28350000f5c7UL, 0xfff43d060000ac66UL, 0xfff925aa0000fb55UL,
  0x0004157700006ec2UL, 0xfff829ef0000fa1bUL, 0xfffd3dd700008f3bUL, 0x00091bc100004f8aUL,
  0x0006234500005af8UL, 0xffff5d330000e8c7UL, 0xfff15a1000009067UL, 0x0008225b0000d585UL,
  0x00042bbc0000cde1UL, 0xfffb210300001a83UL, 0x000e15070000db71UL, 0x000616ee00003f7fUL,
  0x00091c270000cb8fUL, 0xffff20750000200fUL, 0xfff72ff10000cc67UL, 0xfff629400000c714UL,
  0xffff3a410000bbdaUL, 0x000823b500009c35UL, 0x00052ec00000ac4bUL, 0x000b4fb400000f6fUL,
  0xfff93da20000ccc1UL, 0xfff5300d0000859cUL, 0xfffe1d450000d17eUL, 0x00051511000015a6UL,
  0xfff827ef000044e5UL, 0xffe2262300005e91UL, 0x000b1ac90000893aUL, 0xfffc6f0000004c52UL,
  0x00003b1a0000af99UL, 0x00052e420000a8f2UL, 0x00061d6e0000270bUL, 0xfff12b17000074ebUL,
  0x0002272900008964UL, 0x00031cd70000bcaeUL, 0xfff223ef000083eeUL, 0x00011e7200002a9aUL,
  0x00091ef90000b46cUL, 0x000a1a6e00006b48UL, 0x000813b600004cdeUL, 0xfff92e65000078afUL,
  0xffff23bf0000a455UL, 0xfffd28ea00006e4bUL, 0xffff27fe00007e95UL, 0xfff326450000b7c7UL,
  0xffff27b600009d37UL, 0xfffd26f600004e92UL, 0xfffd4cfa00006684UL, 0x000822020000dcf4UL,
  0x00011c9f00006585UL, 0x00031c260000556cUL, 0x00012e0700007c3bUL, 0x000926430000b068UL,
  0x0001241500006c36UL, 0x00013aa90000b10cUL, 0xfff51e680000d86bUL, 0x00061475000096e3UL,
  0xfff72bef00005909UL, 0xfffb2bb90000c59fUL, 0xfff355190000d22dUL, 0x0004204700000d35UL,
  0xfff920280000d3c6UL, 0xffff26ee000070daUL, 0xfffd1ede0000758eUL, 0x000a194e0000c631UL,
  0xfffd2eb700006f98UL, 0x000b4919000013f0UL, 0x000623350000c3ceUL, 0xfff91bef00008800UL,
  0xfffd33010000d8d3UL, 0xfffb328f0000ac64UL, 0x0003320e000012d3UL, 0xfff9304500003877UL,
  0xfff726e00000eaceUL, 0x000623b9000048fbUL, 0x0007168100009bc7UL, 0xffff25ce0000b734UL,
  0xfff61bd20000c9d9UL, 0x000c12880000c2d7UL, 0x000722df00003d9cUL, 0x00061e690000c8aaUL,
  0x000c1c2f000090d9UL, 0xfff438950000427cUL, 0x00002c0b0000a99aUL, 0x000326c60000a335UL,
  0xfffe78ee0000c1aaUL, 0x00021ea00000684aUL, 0xfff620130000e92bUL, 0x00071de90000e56aUL,
  0xfffd29440000b0bdUL, 0x00051b6900009b4fUL, 0x000421c10000110fUL, 0x00092c1e00003dc8UL,
  0x0006180800002a98UL, 0xffff22f20000ecfeUL, 0xfff4365a00003ad4UL, 0x000120a90000e70fUL,
  0xffe621ce00005970UL, 0x000333180000f9a0UL, 0xfffc4ac80000ef92UL, 0xfffb1b4b0000d263UL,
  0xfff822c300004891UL, 0xffee256100007061UL, 0xfffb61140000b3acUL, 0xffed27c600004495UL,
  0xffef36d70000df17UL, 0xfffb2a7b00008390UL, 0x0002197100009d8aUL, 0xfff92acb00008305UL,
  0xfff825b000000094UL, 0x00081fe7000084d1UL, 0xffff24010000aad4UL, 0xfff821ad0000a677UL,
  0xfffe1ea90000a128UL, 0xfffc280000006eb0UL, 0x00012b2d0000d2b6UL, 0x00021fed00006942UL,
  0x0008246600003951UL, 0x000118a100003b5fUL, 0x00042a500000b92dUL, 0x00052a4c000033d2UL,
  0xfffb3181000036e4UL, 0x000c2c6a0000dfd1UL, 0xfff626590000b2e4UL, 0x00021b45000032f5UL,
  0xfff431e800000386UL, 0x0001347500006c37UL, 0x00061a650000f5eaUL, 0x000721950000f172UL,
  0x000c44c10000c19aUL, 0x000031c700006996UL, 0x00052acc0000fd8bUL, 0xfffb26550000781bUL,
  0xfffa291000006367UL, 0xffef29960000ea08UL, 0xfffd31050000a88aUL, 0x0002244300006071UL,
  0x00025d76000029bfUL, 0xfffd1ad10000a878UL, 0x00091dfa0000c765UL, 0xfff645df00000e46UL,
  0x0002540a0000b703UL, 0xffff28ba0000729dUL, 0x00031b6400004407UL, 0x0005299a0000c9c3UL,
  0x00081b030000f261UL, 0x00013a1c000073c2UL, 0x00041e150000902aUL, 0xffff1bf600002b54UL,
  0xfffa20560000fb14UL, 0x00031d2c00001336UL, 0x00061fae0000aef7UL, 0xfff321eb00006739UL,
  0xfffa3eaf00007136UL, 0x000a19270000f9d4UL, 0x00001dff00004079UL, 0x000828940000a32cUL,
  0x000125f500004179UL, 0x00091e9300002e70UL, 0x00002b7800002af8UL, 0xfffe240b0000795eUL,
  0xfff6233000001010UL, 0xfffe26a90000df18UL, 0xfff83f670000019aUL, 0x00001e3d00004128UL,
  0xfffc218f00009a95UL, 0xfffe20a40000a38cUL, 0x000020e700002071UL, 0x000217bd0000248aUL,
  0xfffd137500009f77UL, 0x000415970000815dUL, 0x000724270000e988UL, 0xfff428820000951eUL,
  0xfff5289a000027cdUL, 0xfffc1bd40000bbd2UL, 0x000b17ba00001a65UL, 0xfff733cd00004777UL,
  0x00073dd100003b4aUL, 0xfffe36e00000ed1dUL, 0xffef350800007060UL, 0x000122d90000e735UL,
  0xfffd26720000c2b2UL, 0x000b1df20000c00fUL, 0x000722840000f60cUL, 0x000417200000e9d8UL,
  0x000222110000e076UL, 0x000418d80000aa77UL, 0x0009143c00005fc7UL, 0x000733ff00006e6eUL,
  0xffea24a300006548UL, 0x00091c510000d925UL, 0x000718ee0000ef6aUL, 0x00035feb00001d9fUL,
  0xfff9270900009f1bUL, 0xfffd1bd90000c757UL, 0x000c172a0000bf6eUL, 0x00051c2b000010afUL,
  0x000715920000916fUL, 0x00063d0e0000224bUL, 0x00094f9e0000dde6UL, 0x000b198700004dddUL,
  0xfffa205d0000439bUL, 0xfffb295b00006bffUL, 0xfff524760000563cUL, 0x000616c2000092bdUL,
  0x00003ec40000b11bUL, 0x00061d2c0000ff1bUL, 0xfffd40750000964aUL, 0x000618f200003e53UL,
  0x000918c100003934UL, 0x000b191c00004a3bUL, 0x000612ea00004849UL, 0x0000287b000038b8UL,
  0x0006320a0000c1ceUL, 0x000224800000d5feUL, 0xffea23f800007b35UL, 0x00042b830000e6d9UL,
  0xfffa232a00001147UL, 0x000b141b0000f806UL, 0x0005146800004f65UL, 0x00041b960000c478UL,
  0xfffa276100000d87UL, 0x00021ef3000021e5UL, 0xfffa258800003bd8UL, 0xfffc197d000046c1UL,
  0x000c172a00000eb5UL, 0x680b7c000000e2c3UL, 0x6b00200300000000UL, 0x00007246fff82c7dUL,
  0x0000e508fff026e4UL, 0x000036caffff46d6UL, 0x0000e3c800043127UL, 0x0000860400091c2eUL,
  0x00006834fffe2122UL, 0x00003b72fff93532UL, 0x000082a000012efcUL, 0x0000dda500041668UL,
  0x00006810fffa2536UL, 0x000038f6fffb17d4UL, 0x0000df2a0004273aUL, 0x00005cec00081e4aUL,
  0x000035c5000420d0UL, 0x0000c3670000309cUL, 0x00009c8300021995UL, 0x0000de9900050fecUL,
  0x0000335600002566UL, 0x0000bf4300052dcbUL, 0x0000153c000228bbUL, 0x0000ad820004221bUL,
  0x0000e0250007189aUL, 0x00002767ffe625fdUL, 0x0000c2b6000232fbUL, 0x00006c75000220a6UL,
  0x000035b4fffd1f11UL, 0x0000a908ffeb27e0UL, 0x0000f3ad0001359cUL, 0x0000c02bfff91e48UL,
  0x0000f3690000242cUL, 0x000066cbfffc55e9UL, 0x0000ede900001ac5UL, 0x00006ab9ffff1e4fUL,
  0x00007cfe00052184UL, 0x0000d073fff84756UL, 0x00003ac400081f75UL, 0x00005184ffed46adUL,
  0x0000c6de00022407UL, 0x000061c5fffd1adeUL, 0x00009dab00071822UL, 0x0000cef90008190aUL,
  0x00002f50fff422c1UL, 0x0000f4e0fffd1b7dUL, 0x0000e5fefffe437cUL, 0x000015bd000b10e9UL,
  0x0000b566fff41f91UL, 0x0000277700001cd3UL, 0x00008b4b000217d8UL, 0x00001f1b00022775UL,
  0x000008fe000414e8UL, 0x0000560e00072208UL, 0x0000212100051ce7UL, 0x0000c2d9000221dbUL,
  0x00000280fff64835UL, 0x000032efffda351fUL, 0x0000840c00011ac8UL, 0x00005c22000821ffUL,
  0x000060dc00051e5eUL, 0x0000c533fff82e7fUL, 0x0000b3d0ffe740edUL, 0x00007e7f00082169UL,
  0x0000f696ffe631b2UL, 0x0000677100011a4bUL, 0x0000d08a00003151UL, 0x0000517a00082ca5UL,
  0x00004be4000c167bUL, 0x0000ed1c0010143cUL, 0x0000171700081c82UL, 0x0000dcafffeb4c4dUL,
  0x0000a3fffffc26e2UL, 0x0000b013000421e3UL, 0x00006db4fffd29b3UL, 0x00005433fffc6e8bUL,
  0x0000241d00003406UL, 0x00001b22fff41589UL, 0x000014ee0001209aUL, 0x0000092100072216UL,
  0x0000b45c0006222fUL, 0x0000b3dcfff41e9aUL, 0x00002385ffff1c23UL, 0x00000d2e00051b50UL,
  0x0000481700063b94UL, 0x0000da1a00002995UL, 0x000098ee000615d1UL, 0x00009df5000523f3UL,
  0x00001177fff73d60UL, 0x00003aa8fffa1878UL, 0x0000431700051cc0UL, 0x00004949fff94f2bUL,
  0x0000c883fffe2149UL, 0x00006c51000326f6UL, 0x00004665fff41f36UL, 0x0000676dfff62ec8UL,
  0x00009204fffd1d23UL, 0x0000031300021877UL, 0x00007305fffe4806UL, 0x0000ac6400051c20UL,
  0x00006fdfffff2c0dUL, 0x00004f98ffff3a3eUL, 0x000066b7fffe2708UL, 0x00002f24000523acUL,
  0x00000a6efff81b64UL, 0x00001d87fff3429bUL, 0x0000620100071915UL, 0x00009ed7fffe47b1UL,
  0x00001a56fffe2b7cUL, 0x0000f4b5fff73eb7UL, 0x0000c05b00041b95UL, 0x0000db8dfffd379eUL,
  0x000015c200003c9bUL, 0x0000ea83000719c2UL, 0x000061ef0000236dUL, 0x0000e0f70002226dUL,
  0x0000a76000061d70UL, 0x00000b88ffff2178UL, 0x00003ba400051513UL, 0x0000aa14000558d2UL,
  0x00003fedffff3c73UL, 0x0000081e00002629UL, 0x0000d2fbfffc20d8UL, 0x00004fecfffe2f39UL,
  0x0000e7e1fffd33e8UL, 0x0000ddd1fffa2365UL, 0x00004328000d17f3UL, 0x00006334000119f2UL,
  0x00003d0700022f1bUL, 0x000072a90005175eUL, 0x00003d08fffa2147UL, 0x58007c0000802221UL,
  0x580200430174104cUL, 0x0290120f00087f80UL, 0x000000c059000403UL, 0x0000000800000008UL,
  0x0000000800000008UL, 0x0000000800000008UL, 0x0000000800000008UL, 0x0000000800000008UL,
  0x0000000800000008UL, 0x0000000800000008UL, 0x0000000800000008UL, 0x00000011000000c9UL,
  0x0000001100000011UL, 0x0000001100000011UL, 0x0000001100000011UL, 0x0000001100000011UL,
  0x0000001100000011UL, 0x0000001100000011UL, 0x5a000683000000d2UL, 0x0000c00000000000UL,
  0x0000c00000000000UL, 0x0000c08000000000UL, 0x0000c08000000000UL, 0x0000c08000000000UL,
  0x0000c10000000000UL, 0x0000c10000000000UL, 0x0000c10000000000UL, 0x0000d66d166a0000UL,
  0x0000d80000000000UL, 0x0000d80000000000UL, 0x0000d90000000000UL, 0x0000da0000000000UL,
  0x0000da8000000000UL, 0x0000db8000000000UL, 0x0000dc8000000000UL, 0x0000dd8000000000UL,
  0x0000d01f70110000UL, 0x0000390000000000UL, 0x00003a0000000000UL, 0x00003b0000000000UL,
  0x00003c0000000000UL, 0x00003c8000000000UL, 0x00003d8000000000UL, 0x00003e8000000000UL,
  0x00003f8000000000UL, 0x20007c0000802061UL, 0x200201230008c000UL, 0x00070007342e6200UL,
  0x0000070001000008UL, 0x0000002000000008UL, 0x0000002400000000UL, 0x200c004200100000UL,
  0x0000000700000006UL, 0x00001000200d0043UL, 0x20110043342e933fUL, 0x0000000000000000UL,
  0x24007c0000802081UL, 0x240200430008c184UL, 0x0012000070c80000UL, 0x00000000240500c3UL,
  0x0000000000000000UL, 0x0000002400000000UL, 0x240c004200100000UL, 0x0000000700000006UL,
  0x00000001240d0043UL, 0x2411004370da003fUL, 0x0000000800000000UL, 0x2c007c00008020c1UL,
  0x2c0200430088c100UL, 0x000000c4342eb1a0UL, 0x000000002c0500c3UL, 0x0000000000000000UL,
  0x0000002400000000UL, 0x2c0c004201900000UL, 0x0000000700000006UL, 0x000010002c0d0043UL,
  0x2c110043342eb367UL, 0x0000000000000000UL, 0x18007c0000802021UL, 0x1802004300880108UL,
  0x000000c4342eb1a0UL, 0x00000000180500c3UL, 0x0000000000000000UL, 0x0000002400000000UL,
  0x180c004200100000UL, 0x0000000700000006UL, 0x00001000180d0043UL, 0x18110043342eb367UL,
  0x0000000000000000UL, 0x14007c0000802001UL, 0x1402012300080008UL, 0x00070007342e0000UL,
  0x00000e0002000004UL, 0x0000008000000004UL, 0x0000002400006200UL, 0x140c004200100000UL,
  0x0000000700000006UL, 0x00000080140d0043UL, 0x14110043342e623fUL, 0x0000000000000000UL,
  0x0000000210007c00UL, 0x0000006410000424UL, 0x10007c0000000000UL, 0x10007bc440000000UL,
  0x0000000000000064UL, 0x0000000110007c00UL, 0x0000002310020043UL, 0x100c006300000015UL,
  0x0000000900000007UL, 0x101d7c000000000dUL, 0x10247c000000002bUL, 0x1400200101151f14UL,
  0x3c007c0018002001UL, 0x5800200100000351UL, 0x2000200168002001UL, 0x2c00200124002001UL,
  0x0000006414007fe4UL, 0x18007fe400000000UL, 0x0000000000000064UL, 0x0000000010020043UL,
  0x100c006300000000UL, 0x0000000000000000UL, 0x101d7c0000000000UL, 0x10247c0000000000UL,
  0x14007c0000000000UL, 0x1400042400000002UL, 0x0000000000000064UL, 0x4000000014007c00UL,
  0x0000006414007bc4UL, 0x0080000100000000UL, 0x0000000218007c00UL, 0x0000006418000424UL,
  0x18007c0000000000UL, 0x18007bc440000000UL, 0x0000000000000064UL, 0x3c007c0000800021UL,
  0x3c00042400000002UL, 0x0000000000000064UL, 0x400000003c007c00UL, 0x000000643c007bc4UL,
  0x0080014100000000UL, 0x0088108258007c00UL, 0x0000006458000424UL, 0x58007c0000000000UL,
  0x58007bc440881080UL, 0x0000000000000064UL, 0x68007c0000800221UL, 0x6800042408000002UL,
  0x0000000000000064UL, 0x4800000068007c00UL, 0x0000006468007bc4UL, 0x008002a100000000UL,
  0x0000000220007c00UL, 0x0000006420000424UL, 0x20007c0000000000UL, 0x20007bc440000000UL,
  0x0000000000000064UL, 0x24007c0000800061UL, 0x2400042400000002UL, 0x0000000000000064UL,
  0x4000000024007c00UL, 0x0000006424007bc4UL, 0x0080008100000000UL, 0x000000022c007c00UL,
  0x000000642c000424UL, 0x2c007c0000000000UL, 0x2c007bc440000000UL, 0x0000000000000064UL,
  0x0000013d008000c1UL, 0x40007c0000802161UL, 0x400200e300000034UL, 0x0000110001010101UL,
  0x0007000710534000UL, 0x0006000000060000UL, 0x400a7c0000000001UL, 0x400d7c0001000100UL,
  0x008022e10000ff80UL, 0x0041c0c070007c00UL, 0x04000452700200e3UL, 0x0007000700080008UL,
  0x0007000000000000UL, 0x0005000100070000UL, 0x34007c0000802101UL, 0x3402012300080000UL,
  0x00070007342e0000UL, 0x00000e0002000001UL, 0x0000000100000000UL, 0x0000002400000001UL,
  0x340c004200100000UL, 0x0000000700000006UL, 0x00000200340d0043UL, 0x34110043342e623fUL,
  0x0000000000000000UL, 0x20007c0000802061UL, 0x2002004300080184UL, 0x0000020070e0a600UL,
  0x00000000200500c3UL, 0x0000000000000000UL, 0x0000002400000000UL, 0x200c004200100000UL,
  0x0000000700000006UL, 0x00000001200d0043UL, 0x2011004370e0a83fUL, 0x0000000800000000UL,
  0x24007c0000802081UL, 0x2402012300080008UL, 0x00070007342ec400UL, 0x00000e0002000001UL,
  0x0000020000000001UL, 0x0000002400006200UL, 0x240c004200100000UL, 0x0000000700000006UL,
  0x00000200240d0043UL, 0x24110043342f263fUL, 0x0000000000000000UL, 0x0000000210007c00UL,
  0x0000006410000424UL, 0x10007c0000000000UL, 0x10007bc440000000UL, 0x0000000000000064UL,
  0x0000000110007c00UL, 0x0000002f10067c00UL, 0x00000011100f0043UL, 0x10277c0000000007UL,
  0x2400200100000017UL, 0x0000003540007c00UL, 0x2000200170002001UL, 0x24007fe434002001UL,
  0x0000000000000064UL, 0x0000000010067c00UL, 0x00000000100f0043UL, 0x10277c0000000000UL,
  0x24007c0000000000UL, 0x2400042400000002UL, 0x0000000000000064UL, 0x4000000024007c00UL,
  0x0000006424007bc4UL, 0x0080008100000000UL, 0x0000000240007c00UL, 0x0000006440000424UL,
  0x40007c0000000000UL, 0x40007bc440000000UL, 0x0000000000000064UL, 0x70007c0000800161UL,
  0x7000042400420002UL, 0x0000000000000064UL, 0x4042000070007c00UL, 0x0000006470007bc4UL,
  0x008002e100000000UL, 0x0000000220007c00UL, 0x0000006420000424UL, 0x20007c0000000000UL,
  0x20007bc440000000UL, 0x0000000000000064UL, 0x34007c0000800061UL, 0x3400042400000002UL,
  0x0000000000000064UL, 0x4000000034007c00UL, 0x0000006434007bc4UL, 0x0080010100000000UL,
  0x008021810000015dUL, 0x0000035044007c00UL, 0x0408030344020123UL, 0x10a3490900001155UL,
  0x0037000000070038UL, 0x0000000100060000UL, 0x00000000003f0140UL, 0x00ffffb0440c0043UL,
  0x0080224100000000UL, 0x080000005c000042UL, 0x5c027c0009000f60UL, 0x5c07004300050000UL,
  0x0000000100010001UL, 0x000000005c0c0043UL, 0x0080226120422042UL, 0x0800000060000042UL,
  0x60027c0005000160UL, 0x60070043000a2400UL, 0x0000426d4800426dUL, 0x00000000600c0043UL,
  0x0080220120422042UL, 0x0174104c54007c00UL, 0x00087f8054020043UL, 0x550004030290120fUL,
  0x00000008000000c0UL, 0x0000000800000008UL, 0x0000000800000008UL, 0x0000000800000008UL,
  0x0000000800000008UL, 0x0000000800000008UL, 0x0000000800000008UL, 0x0000000800000008UL,
  0x000000c900000008UL, 0x0000001100000011UL, 0x0000001100000011UL, 0x0000001100000011UL,
  0x0000001100000011UL, 0x0000001100000011UL, 0x0000001100000011UL, 0x000000d200000011UL,
  0x0000000056000683UL, 0x000000000000c000UL, 0x000000000000c000UL, 0x000000000000c080UL,
  0x000000000000c080UL, 0x000000000000c080UL, 0x000000000000c100UL, 0x000000000000c100UL,
  0x167100000000c100UL, 0x000000000000d66cUL, 0x000000000000d800UL, 0x000000000000d800UL,
  0x000000000000d900UL, 0x000000000000da00UL, 0x000000000000da80UL, 0x000000000000db80UL,
  0x000000000000dc80UL, 0x703500000000dd80UL, 0x000000000000d01cUL, 0x0000000000003980UL,
  0x0000000000003a00UL, 0x0000000000003b00UL, 0x0000000000003c00UL, 0x0000000000003d00UL,
  0x0000000000003d80UL, 0x0000000000003e80UL, 0x0080208100003f80UL, 0x0008c00024007c00UL,
  0x342ec40024020123UL, 0x0200000800070007UL, 0x0000000800000e00UL, 0x0000000000000040UL,
  0x0010000000000024UL, 0x00000006240c0042UL, 0x240d004300000007UL, 0x342f263f00004000UL,
  0x0000000024110043UL, 0x0080202100000000UL, 0x0008c18418007c00UL, 0x7038000018020043UL,
  0x180500c300480000UL, 0x0000000000000000UL, 0x0000000000000000UL, 0x0010000000000024UL,
  0x00000006180c0042UL, 0x180d004300000007UL, 0x7080003f00000001UL, 0x0000000018110043UL,
  0x008020c100000008UL, 0x0088c1002c007c00UL, 0x342f27902c020043UL, 0x2c0500c3000000c4UL,
  0x0000000000000000UL, 0x0000000000000000UL, 0x0090000000000024UL, 0x000000062c0c0042UL,
  0x2c0d004300000007UL, 0x342f295700004000UL, 0x000000002c110043UL, 0x0080206100000000UL,
  0x0088010020007c00UL, 0x70e0240020020043UL, 0x200500c30000001cUL, 0x0000000000000000UL,
  0x0000003800000007UL, 0x0010000000000024UL, 0x00000006200c0042UL, 0x200d004300000007UL,
  0x70e05c3f00000700UL, 0x0000000020110043UL, 0x008020a100000018UL, 0x0088010028007c00UL,
  0x70e05c0028020043UL, 0x280500c30000001cUL, 0x0000000000000000UL, 0x0000003800000007UL,
  0x0010000000000024UL, 0x00000006280c0042UL, 0x280d004300000007UL, 0x70e0943f00000700UL,
  0x0000000028110043UL, 0x0080200100000018UL, 0x0088010814007c00UL, 0x342f279014020043UL,
  0x140500c3000000c4UL, 0x0000000000000000UL, 0x0000000000000000UL, 0x0010000000000024UL,
  0x00000006140c0042UL, 0x140d004300000007UL, 0x342f295700004000UL, 0x0000000014110043UL,
  0x0080204100000000UL, 0x000800081c007c00UL, 0x342e00001c020123UL, 0x0400000400070007UL,
  0x0000000400001c00UL, 0x0000c40000000100UL, 0x0010000000000024UL, 0x000000061c0c0042UL,
  0x1c0d004300000007UL, 0x342ec43f00000100UL, 0x000000001c110043UL, 0x10007c0000000000UL,
  0x1000042400000002UL, 0x0000000000000064UL, 0x4000000010007c00UL, 0x0000006410007bc4UL,
  0x10007c0000000000UL, 0x10027c0000000001UL, 0x10047c0000000019UL, 0x1012006300000021UL,
  0x0000000300000009UL, 0x101c7c000000000dUL, 0x101e008300000027UL, 0x0000000701193f18UL,
  0x0000000b00000025UL, 0x1c00200114002001UL, 0x0000035144007c00UL, 0x5c00200154002001UL,
  0x1800200160002001UL, 0x2400200120002001UL, 0x2c00200128002001UL, 0x0000006414007fe4UL,
  0x1c007fe400000000UL, 0x0000000000000064UL, 0x0000000010027c00UL, 0x0000000010047c00UL,
  0x0000000010120063UL, 0x0000000000000000UL, 0x00000000101c7c00UL, 0x00000000101e0083UL,
  0x0000000000000000UL, 0x14007c0000000000UL, 0x1400042400000002UL, 0x0000000000000064UL,
  0x4000000014007c00UL, 0x0000006414007bc4UL, 0x0080000100000000UL, 0x000000021c007c00UL,
  0x000000641c000424UL, 0x1c007c0000000000UL, 0x1c007bc440000000UL, 0x0000000000000064UL,
  0x44007c0000800041UL, 0x4400042400000002UL, 0x0000000000000064UL, 0x4000000044007c00UL,
  0x0000006444007bc4UL, 0x0080018100000000UL, 0x0088108254007c00UL, 0x0000006454000424UL,
  0x54007c0000000000UL, 0x54007bc440881080UL, 0x0000000000000064UL, 0x5c007c0000800201UL,
  0x5c00042408000002UL, 0x0000000000000064UL, 0x480000005c007c00UL, 0x000000645c007bc4UL,
  0x0080024100000000UL, 0x0800000260007c00UL, 0x0000006460000424UL, 0x60007c0000000000UL,
  0x60007bc448000000UL, 0x0000000000000064UL, 0x18007c0000800261UL, 0x1800042400000002UL,
  0x0000000000000064UL, 0x4000000018007c00UL, 0x0000006418007bc4UL, 0x0080002100000000UL,
  0x0000000220007c00UL, 0x0000006420000424UL, 0x20007c0000000000UL, 0x20007bc440000000UL,
  0x0000000000000064UL, 0x24007c0000800061UL, 0x2400042400000002UL, 0x0000000000000064UL,
  0x4000000024007c00UL, 0x0000006424007bc4UL, 0x0080008100000000UL, 0x0000000228007c00UL,
  0x0000006428000424UL, 0x28007c0000000000UL, 0x28007bc440000000UL, 0x0000000000000064UL,
  0x2c007c00008000a1UL, 0x2c00042400000002UL, 0x0000000000000064UL, 0x400000002c007c00UL,
  0x000000642c007bc4UL, 0x008000c100000000UL, 0x008021a10000017dUL, 0x0000035048007c00UL,
  0x0408030348020123UL, 0x10a34a0a00001155UL, 0x0037000000070038UL, 0x0000000100060000UL,
  0x00000000007f0180UL, 0x00ffffb0480c0043UL, 0x0080228100000000UL, 0x0800000064000042UL,
  0x64020123156000fcUL, 0x0000000000070000UL, 0x000000c300000003UL, 0x00000000000061ffUL,
  0x000403fd00000000UL, 0x640c004300000001UL, 0x2042204200000000UL, 0x00000001640b7c00UL,
  0x0005022665006003UL, 0x00060830000066feUL, 0x00030a02000050e9UL, 0x000408520000a555UL,
  0x0005043b00009c44UL, 0x000506f7000013a2UL, 0x0004091600008af4UL, 0x000506f90000ef6aUL,
  0x000411b10000a841UL, 0x00050ca200006549UL, 0x0004103f0000e5cfUL, 0x00050b790000269fUL,
  0x00040fac0000d5e6UL, 0x0005051f000038fdUL, 0x00040c0300003139UL, 0x00060d570000418cUL,
  0x000509b8000068abUL, 0x000408af000024d4UL, 0x000509e500007720UL, 0x000507ed0000c6a5UL,
  0x000505e800003bf4UL, 0x00050cba00005211UL, 0x00060aa00000f6ddUL, 0x000413380000b88bUL,
  0x00060a970000f865UL, 0x00050d160000b3e6UL, 0x000609b700002b8eUL, 0x0004157d00000702UL,
  0x00030a940000ed26UL, 0x00050bf200005033UL, 0x00050e8c000054b2UL, 0x0006108f000022c3UL,
  0x00030eed0000d43dUL, 0x00030ac60000eac9UL, 0x000404c3000091a2UL, 0x000410e10000822aUL,
  0x00040e6100003e97UL, 0x0006075a0000f991UL, 0x000606a600006a70UL, 0x000412cb000038b8UL,
  0x00051b5100000359UL, 0x00040a0c00009166UL, 0x00040636000039aaUL, 0x0004097e00008a4dUL,
  0x000404fa0000b66bUL, 0x00040a5800008d91UL, 0x0005075e0000c8a0UL, 0x000409ae00008704UL,
  0x00040d28000071b9UL, 0x00040ad00000390bUL, 0x0004093a0000ddc7UL, 0x00040ee500004776UL,
  0x00062657000088daUL, 0x000407390000b9e1UL, 0x0004045e0000517aUL, 0x00040aee00007f6aUL,
  0x00030b2000001237UL, 0x000411270000fdffUL, 0x00050855000034c9UL, 0x0004076b00001b4aUL,
  0x000605980000cc24UL, 0x000711b60000b003UL, 0x0004040400002801UL, 0x00050ad80000dcdeUL,
  0x000407350000bc94UL, 0x00050f200000163bUL, 0x00050b2d0000725cUL, 0x000409dc000005f9UL,
  0x000605a80000324aUL, 0x00060d830000873fUL, 0x000414d20000d680UL, 0x000507eb00006e47UL,
  0x00040afc00004632UL, 0x00040ac700004d5dUL, 0x0003100c00005796UL, 0x0005089500009d21UL,
  0x0003067f0000b7f4UL, 0x00040a6900007099UL, 0x00050c0e00005d50UL, 0x0004174e00005b8eUL,
  0x000306d5000066adUL, 0x0005209900006412UL, 0x00040a550000d488UL, 0x00060fdc00008c2dUL,
  0x000214bb000061b0UL, 0x0005122f0000bb4aUL, 0x0005045c000063dfUL, 0x000415cd000059c1UL,
  0x000408da00008a78UL, 0x00040b2000000e89UL, 0x00030d38000088c5UL, 0x000410120000ccf3UL,
  0x000511d00000d915UL, 0x00050dd40000bc35UL, 0x000613650000739aUL, 0x00050fc4000023e0UL,
  0x0006037800002810UL, 0x00030bfa00000021UL, 0x000509cd000030f7UL, 0x00050efb0000a44bUL,
  0x000407a6000048beUL, 0x00040cbc0000d545UL, 0x00040f7d00004c9fUL, 0x000606fb00006defUL,
  0x0005069e000093fcUL, 0x0004151f00004cfeUL, 0x0005049c0000c28bUL, 0x00030af30000b051UL,
  0x0006089c0000903fUL, 0x000411e200002612UL, 0x0005034a0000bb2aUL, 0x000312610000fb0fUL,
  0x000405490000a60dUL, 0x00040ea20000dc37UL, 0x00040d010000ac86UL, 0x000312bb0000a256UL,
  0x000509ae0000332dUL, 0x00050c2900004e4dUL, 0x000413180000a0daUL, 0x000406980000633cUL,
  0x00060b54000092adUL, 0x00040b5f000065ecUL, 0x000403e10000a668UL, 0x000508a70000e6adUL,
  0x00050bde0000c43bUL, 0x00040de70000b69dUL, 0x000506d0000036c6UL, 0x00050c7d00003df0UL,
  0x00030a730000059dUL, 0x00050d430000ec10UL, 0x00041112000018f7UL, 0x000610100000ebefUL,
  0x00040fa1000000c9UL, 0x0004064a0000e5a6UL, 0x00030fec00009493UL, 0x00030ebf0000f7bdUL,
  0x000611510000a703UL, 0x0003100500000bdfUL, 0x00020de20000d4f9UL, 0x000628a50000af43UL,
  0x000502f50000242eUL, 0x000405c000006817UL, 0x000505350000eef4UL, 0x000413f000000d0fUL,
  0x000503a5000039d7UL, 0x000405c100004294UL, 0x00030c940000c4c8UL, 0x00041e03000069beUL,
  0x00050bbe0000f866UL, 0x00060f230000964cUL, 0x000508dc000016d2UL, 0x0004099a00002ceeUL,
  0x00040aca00003baaUL, 0x00040d86000058ccUL, 0x000412a50000df96UL, 0x00040bb40000b92cUL,
  0x00040a8500006abaUL, 0x000417b200008492UL, 0x00040e1c0000eb6eUL, 0x0004085f0000bc91UL,
  0x0004081d0000c571UL, 0x00040a180000f519UL, 0x00030ff70000ab96UL, 0x00061dc7000020c2UL,
  0x00050a8100006bd6UL, 0x00050b350000f838UL, 0x0003114600005849UL, 0x000612040000b8c2UL,
  0x00050e830000611bUL, 0x000409b10000d7ddUL, 0x00051c1800002072UL, 0x00050c0400008d00UL,
  0x00050c250000db69UL, 0x00060a18000082f6UL, 0x00040e170000b810UL, 0x0006108d00007143UL,
  0x000507ad0000866cUL, 0x000512150000b5e1UL, 0x000409a90000b02dUL, 0x0003102d0000b3a0UL,
  0x00050a48000084e0UL, 0x000214fc000023e1UL, 0x000609db000087deUL, 0x0006077d00003f25UL,
  0x00040b3200004807UL, 0x00040892000017f7UL, 0x0003099c0000c2cbUL, 0x000308150000e7caUL,
  0x000409da0000fcabUL, 0x00040f91000048fcUL, 0x00040a9800003d98UL, 0x000406c900001593UL,
  0x00040c5500000489UL, 0x0005098500005000UL, 0x00030d510000ba26UL, 0x000509480000fa5bUL,
  0x00040cf6000001e6UL, 0x000509d400005b6bUL, 0x0003126f000026e1UL, 0x00040f7300005efeUL,
  0x0006086e0000457dUL, 0x000506800000c645UL, 0x00050da80000a43fUL, 0x000406c50000aafcUL,
  0x0005053c0000bc57UL, 0x0004048200001061UL, 0x00031fff00001e45UL, 0x00030ccd0000e3eaUL,
  0x000504bc0000ce2dUL, 0x0004117900005620UL, 0x00040d0c00006fc9UL, 0x00040a5d0000ddebUL,
  0x00030a7d00003451UL, 0x000405700000867aUL, 0x000609a1000062a2UL, 0x00040f8500001e7cUL,
  0x00030c940000b073UL, 0x0004076f0000d829UL, 0x000505e30000fd44UL, 0x00040f2500001592UL,
  0x00040f400000b5a0UL, 0x000412550000c0b3UL, 0x00040a0100001002UL, 0x00040ae10000628bUL,
  0x0005078400006965UL, 0x00040d63000088daUL, 0x00031d30000012efUL, 0x00050cc00000b706UL,
  0x0005072f0000b26dUL, 0x0004065200007d20UL, 0x0004121500000c59UL, 0x00040a550000a485UL,
  0x000709100000b5aeUL, 0x0005127500004229UL, 0x000408ff00008dfaUL, 0x00040e4a0000f9d4UL,
  0x0004061500004e25UL, 0x0005024a0000a27aUL, 0x00050a6800008d6dUL, 0x0004076d000030a5UL,
  0x0005063a00002c9dUL, 0x000408830000ee9cUL, 0x00040d150000cf0dUL, 0x0007255400009d49UL,
  0x00050e2600000163UL, 0x000316ab000093b2UL, 0x000409040000cbbdUL, 0x00060d780000960eUL,
  0x00050c560000b26cUL, 0x00041f250000920fUL, 0x0003176d000079d5UL, 0x00050b3f0000f74cUL,
  0x000412690000086bUL, 0x0005053d0000510cUL, 0x0004111d000066edUL, 0x00050b1b0000d611UL,
  0x000413d3000007edUL, 0x000506e500000f3eUL, 0x00050be90000f510UL, 0x00030fb90000a080UL,
  0x00051138000079a0UL, 0x000603510000019fUL, 0x00040e7f000057b7UL, 0x0004097a0000bddfUL,
  0x000510790000187dUL, 0x000413dc0000b9daUL, 0x0004066100002c83UL, 0x0004136500009a56UL,
  0x000405070000c2f4UL, 0x00050934000087b2UL, 0x000407820000d85fUL, 0x00040a610000ba6cUL,
  0x00040c1800000f18UL, 0x00030d8400004e81UL, 0x00050778000089c3UL, 0x00050a60000025b2UL,
  0x0003135000007a25UL, 0x00040f7f0000e081UL, 0x0005270300001885UL, 0x000506680000b92eUL,
  0x00030af3000019a0UL, 0x00040d6a0000f44dUL, 0x00040b620000978fUL, 0x000409400000e49dUL,
  0x000409480000ae22UL, 0x00060a8500008823UL, 0x00051ea000001fbcUL, 0x00050588000094eeUL,
  0x000408be00006256UL, 0x0005087200006a94UL, 0x000607d100004d2eUL, 0x0005082700002e15UL,
  0x0004062a000030adUL, 0x000606210000aba4UL, 0x00061ef9000080e7UL, 0x0005102900001c97UL,
  0x00040ac500006551UL, 0x000518780000529eUL, 0x000311ad0000781fUL, 0x0004064e00008087UL,
  0x0005079a0000c51fUL, 0x000514e50000699dUL, 0x0003063500008312UL, 0x000514fb0000cd22UL,
  0x000407a300003697UL, 0x0004070200003314UL, 0x000507ff000070ffUL, 0x0004290400008d21UL,
  0x00050ab70000e101UL, 0x00031843000019bdUL, 0x00040ccc0000e776UL, 0x00030d0d000080c5UL,
  0x00040bac0000f18aUL, 0x00050f9e00004fafUL, 0x00040fdf0000ce52UL, 0x0004114a00002b1aUL,
  0x000413c5000051edUL, 0x000615b100008f85UL, 0x000507f10000c535UL, 0x00050a75000018f6UL,
  0x00041135000011ddUL, 0x00051eca00004c7cUL, 0x00040c8e0000f32cUL, 0x000304fc000020e4UL,
  0x00045b6c0000ebcbUL, 0x00050e9f0000fb24UL, 0x00040c7b0000736fUL, 0x0004135a00001cb4UL,
  0x00041134000018c8UL, 0x000408750000c6deUL, 0x0005187600001f6dUL, 0x00050ad50000676bUL,
  0x000507ed00003091UL, 0x00041f2e000008dfUL, 0x00040fea0000f2b3UL, 0x00040ae70000f6adUL,
  0x00040ccb0000de00UL, 0x00040e770000ae6aUL, 0x00030e8e00007f14UL, 0x000504d50000d9c6UL,
  0x00030edf000028c1UL, 0x000309f30000fceaUL, 0x00060da30000d851UL, 0x000508910000b15cUL,
  0x00020de40000ba58UL, 0x00061dd80000e525UL, 0x00042275000073f1UL, 0x00081abd0000c995UL,
  0x0004246700001fa2UL, 0x000406480000f468UL, 0x00050efb0000466cUL, 0x00030640000055c6UL,
  0x00051256000089e9UL, 0x00040ae10000e24aUL, 0x00040ea700009254UL, 0x0007102500001d28UL,
  0x00060e8800003530UL, 0x000517f700008e66UL, 0x00041bc00000db0dUL, 0x00040aef00004b5eUL,
  0x00030dab0000f665UL, 0x0004100d0000c076UL, 0x0005080700005a57UL, 0x00050cd600000431UL,
  0x000514d30000797cUL, 0x00020ddf00000682UL, 0x00040a430000dfceUL, 0x00060bf90000d704UL,
  0x0006179c0000a340UL, 0x0004101f0000be05UL, 0x000613be000000a4UL, 0x00040f670000087aUL,
  0x00041a4c0000090eUL, 0x000505030000f65fUL, 0x00050ac300002e2dUL, 0x0007095500001733UL,
  0x00040d0c00006907UL, 0x000507ca00008f01UL, 0x00030b5b000049b7UL, 0x0004124e00003e0aUL,
  0x0003096a0000e38bUL, 0x00040efa0000e8ebUL, 0x000316a10000b4b8UL, 0x00030e7c00007a7eUL,
  0x640b7c0000003608UL, 0x6700200300000000UL, 0x00001bc000051c5eUL, 0x0000c85600050794UL,
  0x00000c1500050663UL, 0x0000999500040be1UL, 0x0000473a00040978UL, 0x00007d4d00040778UL,
  0x0000e83a00040895UL, 0x0000398700050747UL, 0x0000685a000409b8UL, 0x000079ef000310ddUL,
  0x0000f49c000405efUL, 0x00005bc800030957UL, 0x00003ee00006063aUL, 0x00009b6000040afcUL,
  0x0000dbb6000406eaUL, 0x00006be700030966UL, 0x0000c27500040d47UL, 0x000069dc00051304UL,
  0x000007e70004112dUL, 0x0000e7c200040ff5UL, 0x00009e3a000404e4UL, 0x0000b34a00050d80UL,
  0x0000a0640004105bUL, 0x0000ee4a0003163aUL, 0x00001e2c00041ce2UL, 0x0000bbd50005118fUL,
  0x0000ec25000406e5UL, 0x0000942c00060b0dUL, 0x0000b41f00050800UL, 0x0000d53000050bfbUL,
  0x0000846b00040cffUL, 0x000035300005068fUL, 0x000067e30004156cUL, 0x0000d81c00040a34UL,
  0x0000dfa5000215d4UL, 0x0000ca23000405b5UL, 0x000090520005135aUL, 0x0000659000040ca2UL,
  0x0000b078000415c3UL, 0x000068730005045bUL, 0x00008c2800050a2cUL, 0x00009bbc00050c38UL,
  0x0000ec8f000439d4UL, 0x000023e9000411c3UL, 0x0000f4d600050722UL, 0x000033e400040caaUL,
  0x0000bf86000404c8UL, 0x000079e800050b77UL, 0x0000755f0005080aUL, 0x0000e73500040874UL,
  0x0000b7e900021762UL, 0x00003a6d00050464UL, 0x0000a8000003106bUL, 0x0000aa5d00030cfeUL,
  0x00005d8500050732UL, 0x0000d1040004122fUL, 0x0000f81d00040349UL, 0x0000eacc00040a3aUL,
  0x0000eec800030578UL, 0x0000145900040365UL, 0x0000a16500060d19UL, 0x0000466300061066UL,
  0x00006b9700060c14UL, 0x0000046a00070514UL, 0x0000c25900030b25UL, 0x0000247a000504d4UL,
  0x0000f29d00030a9cUL, 0x0000c32d00051e67UL, 0x00000e4b00060970UL, 0x00009c4b00040a4cUL,
  0x0000230d000409c0UL, 0x0000220f00050778UL, 0x0000947b0005083fUL, 0x0000b33200050b64UL,
  0x0000344000050823UL, 0x0000743a00050cd6UL, 0x0000d4f100040868UL, 0x0000717b00050af6UL,
  0x0000d8c10005086dUL, 0x0000be040004106cUL, 0x0000a75c00040660UL, 0x000015170003108cUL,
  0x0000e99300041962UL, 0x0000aee7000413dcUL, 0x0000b26e00040c49UL, 0x0000346000040965UL,
  0x0000212d000309faUL, 0x0000d8e400050998UL, 0x00001865000510f3UL, 0x00008a88000504c3UL,
  0x000034ac00070a00UL, 0x00009f8c000308e9UL, 0x0000640400040d11UL, 0x0000b9720005111fUL,
  0x0000709b00030defUL, 0x00002839000509d0UL, 0x00000e0300040eceUL, 0x00008d650004079fUL,
  0x0000ef3500040a9eUL, 0x0000744300060c80UL, 0x000016bc000507dcUL, 0x0000d00f00060b85UL,
  0x00004f76000504eaUL, 0x00006e7d00050672UL, 0x000020c600060b4dUL, 0x0000f65000040dbbUL,
  0x0000ac1e000506f9UL, 0x0000cb5900050aa5UL, 0x00001e1b00040cf8UL, 0x0000af3c0004081fUL,
  0x0000daed000410e7UL, 0x000061da00051278UL, 0x0000cd0d000406edUL, 0x00005659000507e7UL,
  0x0000157a00060985UL, 0x0000b5bd0004148eUL, 0x0000f0690003125dUL, 0x00008ed800050a9cUL,
  0x0000069300050b8fUL, 0x0000df74000606d4UL, 0x0000eb4a000306aaUL, 0x000057f500040addUL,
  0x00004efb00040ef1UL, 0x0000d65b00040f9dUL, 0x00000e97000411edUL, 0x00000267000404eaUL,
  0x0000d6a9000409d4UL, 0x0000d3b4000306ceUL, 0x58007c0000802221UL, 0x580200430174104cUL,
  0x0290120f00087f80UL, 0x000000c059000403UL, 0x0000000800000008UL, 0x0000000800000008UL,
  0x0000000800000008UL, 0x0000000800000008UL, 0x0000000800000008UL, 0x0000000800000008UL,
  0x0000000800000008UL, 0x0000000800000008UL, 0x000000c900000008UL, 0x0000001100000011UL,
  0x0000001100000011UL, 0x0000001100000011UL, 0x0000001100000011UL, 0x0000001100000011UL,
  0x0000001100000011UL, 0x5a000683000000d2UL, 0x0000c00000000000UL, 0x0000c00000000000UL,
  0x0000c08000000000UL, 0x0000c08000000000UL, 0x0000c08000000000UL, 0x0000c10000000000UL,
  0x0000c10000000000UL, 0x0000c10000000000UL, 0x0000d82418440000UL, 0x0000db0000000000UL,
  0x0000db8000000000UL, 0x0000db8000000000UL, 0x0000db8000000000UL, 0x0000dc0000000000UL,
  0x0000dc0000000000UL, 0x0000dc8000000000UL, 0x0000dc8000000000UL, 0x0000c6b379530000UL,
  0x0000388000000000UL, 0x0000398000000000UL, 0x00003a8000000000UL, 0x00003b8000000000UL,
  0x00003c0000000000UL, 0x00003d0000000000UL, 0x00003e0000000000UL, 0x00003f0000000000UL,
  0x34007c0000802101UL, 0x340201230008c000UL, 0x00070007342e0000UL, 0x00001c0004000008UL,
  0x0000008000000008UL, 0x0000002400000000UL, 0x340c004200100000UL, 0x0000000700000006UL,
  0x00004000340d0043UL, 0x34110043342ec43fUL, 0x0000000000000000UL, 0x38007c0000802121UL,
  0x380200430008c184UL, 0x0048000070800000UL, 0x00000000380500c3UL, 0x0000000000000000UL,
  0x0000002400000000UL, 0x380c004200100000UL, 0x0000000700000006UL, 0x00000001380d0043UL,
  0x3811004370c8003fUL, 0x0000000800000000UL, 0x1c007c0000802041UL, 0x1c0200430088c100UL,
  0x000000c4342f2600UL, 0x000000001c0500c3UL, 0x0000000000000000UL, 0x0000002400000000UL,
  0x1c0c004206900000UL, 0x0000000700000006UL, 0x000040001c0d0043UL, 0x1c110043342f27c7UL,
  0x0000000000000000UL, 0x2c007c00008020c1UL, 0x2c02004300880108UL, 0x000000c4342f2600UL,
  0x000000002c0500c3UL, 0x0000000000000000UL, 0x0000002400000000UL, 0x2c0c004200100000UL,
  0x0000000700000006UL, 0x000040002c0d0043UL, 0x2c110043342f27c7UL, 0x0000000000000000UL,
  0x30007c00008020e1UL, 0x3002012300080008UL, 0x00070007342ec400UL, 0x00000e0002000004UL,
  0x0000008000000004UL, 0x0000002400006200UL, 0x300c004200100000UL, 0x0000000700000006UL,
  0x00000080300d0043UL, 0x30110043342f263fUL, 0x0000000000000000UL, 0x0000000210007c00UL,
  0x0000006410000424UL, 0x10007c0000000000UL, 0x10007bc440000000UL, 0x0000000000000064UL,
  0x0000000110007c00UL, 0x0000001b10080043UL, 0x1015006300000023UL, 0x0000001300000011UL,
  0x101d7c0000000005UL, 0x10227c0000000029UL, 0x2c002001011b7f1aUL, 0x48007c0030002001UL,
  0x5800200100000351UL, 0x1c00200164002001UL, 0x3800200134002001UL, 0x000000642c007fe4UL,
  0x30007fe400000000UL, 0x0000000000000064UL, 0x0000000010080043UL, 0x1015006300000000UL,
  0x0000000000000000UL, 0x101d7c0000000000UL, 0x10227c0000000000UL, 0x2c007c0000000000UL,
  0x2c00042400000002UL, 0x0000000000000064UL, 0x400000002c007c00UL, 0x000000642c007bc4UL,
  0x008000c100000000UL, 0x0000000230007c00UL, 0x0000006430000424UL, 0x30007c0000000000UL,
  0x30007bc440000000UL, 0x0000000000000064UL, 0x48007c00008000e1UL, 0x4800042400000002UL,
  0x0000000000000064UL, 0x4000000048007c00UL, 0x0000006448007bc4UL, 0x008001a100000000UL,
  0x0088108258007c00UL, 0x0000006458000424UL, 0x58007c0000000000UL, 0x58007bc440881080UL,
  0x0000000000000064UL, 0x64007c0000800221UL, 0x6400042408000002UL, 0x0000000000000064UL,
  0x4800000064007c00UL, 0x0000006464007bc4UL, 0x0080028100000000UL, 0x000000021c007c00UL,
  0x000000641c000424UL, 0x1c007c0000000000UL, 0x1c007bc440000000UL, 0x0000000000000064UL,
  0x34007c0000800041UL, 0x3400042400000002UL, 0x0000000000000064UL, 0x4000000034007c00UL,
  0x0000006434007bc4UL, 0x0080010100000000UL, 0x0000000238007c00UL, 0x0000006438000424UL,
  0x38007c0000000000UL, 0x38007bc440000000UL, 0x0000000000000064UL, 0x0000019d00800121UL,
  0x3c007c0000802141UL, 0x3c02012300000350UL, 0x000011000f100101UL, 0x0007007010b74005UL,
  0x00060000006f0000UL, 0x00070108000e003cUL, 0x3c0c004300000000UL, 0x0000000000ffffb9UL,
  0x40007c0000802161UL, 0x400200e300000040UL, 0x000011000f100101UL, 0x0007007010b74000UL,
  0x00060000006f0000UL, 0x400a7c00001d0f3cUL, 0x400c004300000000UL, 0x0000000000ffffb9UL,
  0x44007c0000802181UL, 0x440200e300000040UL, 0x000011000f100101UL, 0x0007007010b74000UL,
  0x00060000006f0000UL, 0x440a7c00002c1e3cUL, 0x440c004300000000UL, 0x0000000000ffffb9UL,
  0x48007c00008021a1UL, 0x480200e300000040UL, 0x000011000f100101UL, 0x0007007010a34500UL,
  0x00060000006f0000UL, 0x480a7c00003b2d3cUL, 0x480c004300000000UL, 0x0000000000ffffb9UL,
  0x68000042008022a1UL, 0x156000fc08000000UL, 0x0009000068020123UL, 0x0000000e00000000UL,
  0x000005bd000002deUL, 0x0000000000000000UL, 0x00000001078c03f2UL, 0x00000000680c0043UL,
  0x680b7c0020422042UL, 0x6900078300000001UL, 0x000094f1002d1f74UL, 0x0000a2f1002b2373UL,
  0x0000bf05002a0756UL, 0x00003530002507f3UL, 0x000072b4ffdb2496UL, 0x0000e78300301028UL,
  0x0000d93d00321e26UL, 0x0000052e002c2127UL, 0x00001f69002e0625UL, 0x000040df002908a0UL,
  0x0000e36afff73867UL, 0x0000f03d00380f80UL, 0x00002e6f002d1d54UL, 0x0000884e002b1fa7UL,
  0x0000514b002d0726UL, 0x0000605e002b04cbUL, 0x000067a4fff64227UL, 0x000020e00022178dUL,
  0x0000fd31002a1ee7UL, 0x0000d1b6002d29bfUL, 0x0000a38b002b04a3UL, 0x000053a6002b06c9UL,
  0x0000e0edfffb31b6UL, 0x0000e629001e1309UL, 0x00004fff002e19c6UL, 0x00007d75002910b7UL,
  0x000030ed002d06b8UL, 0x0000dc41002d0611UL, 0x0000e10bffeb2e8aUL, 0x0000afef0021119aUL,
  0x18007c0000802021UL, 0x180201230008c000UL, 0x00070007342ec400UL, 0x00000e0002000010UL,
  0x0000000800000040UL, 0x0000002400000000UL, 0x180c004200100000UL, 0x0000000700000006UL,
  0x00000010180d0043UL, 0x18110043342f263fUL, 0x0000000000000000UL, 0x34007c0000802101UL,
  0x340200430008c184UL, 0x00003c0070dfe800UL, 0x00000000340500c3UL, 0x0000000000000000UL,
  0x0000002400000000UL, 0x340c004200100000UL, 0x0000000700000006UL, 0x00000001340d0043UL,
  0x3411004370e0243fUL, 0x0000000800000000UL, 0x24007c0000802081UL, 0x240200430088c100UL,
  0x000002df342e05c0UL, 0x00000000240500c3UL, 0x0000000000000000UL, 0x0000002400000000UL,
  0x240c004202900000UL, 0x0000000700000006UL, 0x00000010240d0043UL, 0x24110043342e0bbfUL,
  0x0000000000000000UL, 0x28007c00008020a1UL, 0x280201230008c000UL, 0x00070007342ec410UL,
  0x00000e0002000010UL, 0x0000000800000040UL, 0x0000002400000000UL, 0x280c004200100000UL,
  0x0000000700000006UL, 0x00000010280d0043UL, 0x28110043342f263fUL, 0x0000000000000000UL,
  0x2c007c00008020c1UL, 0x2c0201230008c000UL, 0x00070007342ec420UL, 0x00000e0002000010UL,
  0x0000000800000040UL, 0x0000002400000000UL, 0x2c0c004200100000UL, 0x0000000700000006UL,
  0x000000102c0d0043UL, 0x2c110043342f263fUL, 0x0000000000000000UL, 0x38007c0000802121UL,
  0x380201230008c000UL, 0x00070007342ec430UL, 0x00000e0002000010UL, 0x0000000800000040UL,
  0x0000002400000000UL, 0x380c004200100000UL, 0x0000000700000006UL, 0x00000010380d0043UL,
  0x38110043342f263fUL, 0x0000000000000000UL, 0x1c007c0000802041UL, 0x1c02004300880108UL,
  0x000002df342e05c0UL, 0x000000001c0500c3UL, 0x0000000000000000UL, 0x0000002400000000UL,
  0x1c0c004200100000UL, 0x0000000700000006UL, 0x000000101c0d0043UL, 0x1c110043342e0bbfUL,
  0x0000000000000000UL, 0x30007c00008020e1UL, 0x3002012300080008UL, 0x00070007342e0000UL,
  0x000000d2001e000fUL, 0x000000020000000fUL, 0x00000024000005beUL, 0x300c004200100000UL,
  0x0000000700000006UL, 0x00000002300d0043UL, 0x30110043342e05ffUL, 0x0000000000000000UL,
  0x0000000210007c00UL, 0x0000006410000424UL, 0x10007c0000000000UL, 0x10007bc440000000UL,
  0x0000000000000064UL, 0x0000000110007c00UL, 0x0000001b10047c00UL, 0x0000002b10097c00UL,
  0x00000003100c0183UL, 0x0000000900000011UL, 0x000000110000000bUL, 0x0000000d00000015UL,
  0x0000001700000011UL, 0x0000001100000013UL, 0x10247c0000000019UL, 0x1c002001011b071aUL,
  0x3c007c0030002001UL, 0x40007c0000000351UL, 0x44007c0000000041UL, 0x48007c0000000041UL,
  0x6800200100000041UL, 0x2400200118002001UL, 0x2c00200128002001UL, 0x3800200134002001UL,
  0x000000641c007fe4UL, 0x30007fe400000000UL, 0x0000000000000064UL, 0x0000000010047c00UL,
  0x0000000010097c00UL, 0x00000000100c0183UL, 0x0000000000000000UL, 0x0000000000000000UL,
  0x0000000000000000UL, 0x0000000000000000UL, 0x0000000000000000UL, 0x10247c0000000000UL,
  0x1c007c0000000000UL, 0x1c00042400000002UL, 0x0000000000000064UL, 0x400000001c007c00UL,
  0x000000641c007bc4UL, 0x0080004100000000UL, 0x0000000230007c00UL, 0x0000006430000424UL,
  0x30007c0000000000UL, 0x30007bc440000000UL, 0x0000000000000064UL, 0x3c007c00008000e1UL,
  0x3c00042400000002UL, 0x0000000000000064UL, 0x400000003c007c00UL, 0x000000643c007bc4UL,
  0x0080014100000000UL, 0x0000000240007c00UL, 0x0000006440000424UL, 0x40007c0000000000UL,
  0x40007bc440000000UL, 0x0000000000000064UL, 0x44007c0000800161UL, 0x4400042400000002UL,
  0x0000000000000064UL, 0x4000000044007c00UL, 0x0000006444007bc4UL, 0x0080018100000000UL,
  0x0000000248007c00UL, 0x0000006448000424UL, 0x48007c0000000000UL, 0x48007bc440000000UL,
  0x0000000000000064UL, 0x68007c00008001a1UL, 0x6800042408000002UL, 0x0000000000000064UL,
  0x4800000068007c00UL, 0x0000006468007bc4UL, 0x008002a100000000UL, 0x0000000218007c00UL,
  0x0000006418000424UL, 0x18007c0000000000UL, 0x18007bc440000000UL, 0x0000000000000064UL,
  0x24007c0000800021UL, 0x2400042400000002UL, 0x0000000000000064UL, 0x4000000024007c00UL,
  0x0000006424007bc4UL, 0x0080008100000000UL, 0x0000000228007c00UL, 0x0000006428000424UL,
  0x28007c0000000000UL, 0x28007bc440000000UL, 0x0000000000000064UL, 0x2c007c00008000a1UL,
  0x2c00042400000002UL, 0x0000000000000064UL, 0x400000002c007c00UL, 0x000000642c007bc4UL,
  0x008000c100000000UL, 0x0000000234007c00UL, 0x0000006434000424UL, 0x34007c0000000000UL,
  0x34007bc440000000UL, 0x0000000000000064UL, 0x38007c0000800101UL, 0x3800042400000002UL,
  0x0000000000000064UL, 0x4000000038007c00UL, 0x0000006438007bc4UL, 0x0080012100000000UL,
  0x000000000000000cUL
};

ECBLOB_RUNTIME_SECTION
// _ec_blob_network_1 blob, aligned to the cache line size (equal to 64 bytes)
__attribute__((aligned(64)))
static uint64_t _ec_blob_network_1_ptr[3800];

#define _ec_blob_network_1_address _ec_blob_network_1_ptr

#define _ec_blob_network_1_reloc_table_ptr ((const ECFileEntry *)((const uint8_t *)_ec_blob_network_1 + 24))

ECBLOB_RUNTIME_SECTION
static ECAddr _ec_blob_network_1_prev_base_addrs[1] = { 0 };

#define _ec_blob_network_1__user_io_input_0_RELOC_IDX 0    // index of _user_io_input_0 relocation of _ec_blob_network_1 blob
#define _ec_blob_network_1__user_io_input_0_BASE_SYMBOL ((unsigned char *)_mem_pool__user_io_input_0_network)    // base address of _user_io_input_0 relocation of _ec_blob_network_1 blob

ECBLOB_CONST_SECTION
// aligned to the cache line size (equal to 64 bytes)
__attribute__((aligned(64)))
static const uint64_t _ec_blob_network_14[8] =
{
  0x00000003ca057a7aUL, 0x000001fd000001ddUL, 0x000000000000000cUL
};

#define _ec_blob_network_14_address _ec_blob_network_14

// this macro returns true if _ec_blob_network_1 blob is encrypted and must be decrypted on the fly, false otherwise
#define LL_ATON_EC_MustDecryptBlob_network__ec_blob_network_1 false

// this macro returns true if _ec_blob_network_14 blob is encrypted and must be decrypted on the fly, false otherwise
#define LL_ATON_EC_MustDecryptBlob_network__ec_blob_network_14 false

// this function MUST be called ONLY ONCE once for initializing the network
bool LL_ATON_EC_Network_Init_network(void)
{
  memset(_ec_blob_network_1_prev_base_addrs, 0, 1 * sizeof(ECAddr));

  unsigned int size;
  size = 7600;

  if (!ec_copy_blob((ECInstr *)_ec_blob_network_1_ptr, (const uint8_t *)_ec_blob_network_1, &size))
  {
    // TODO maybe generate/print error because it was not possible to copy the blob
    return false;
  }

  return true;
}

// this function should be called before each inference
bool LL_ATON_EC_Inference_Init_network(void)
{
  LL_ATON_Cache_NPU_Clean_Invalidate_Range((uintptr_t)_ec_blob_network_1_ptr, 30400);

  if (!ec_reloc((ECInstr *)_ec_blob_network_1_ptr, _ec_blob_network_1_reloc_table_ptr, _ec_blob_network_1__user_io_input_0_RELOC_IDX, (ECAddr)(uintptr_t)_ec_blob_network_1__user_io_input_0_BASE_SYMBOL, _ec_blob_network_1_prev_base_addrs + _ec_blob_network_1__user_io_input_0_RELOC_IDX))
  {
    // TODO maybe generate/print error because it was not possible to relocate the blob
    return false;
  }

  LL_ATON_Cache_MCU_Clean_Range((uintptr_t)_ec_blob_network_1_ptr, 30400);

  return true;
}

#ifdef __cplusplus
}
#endif
